{"<s>":0,"<pad>":1,"</s>":2,"<unk>":3,"<mask>":4,"!":5,"\"":6,"#":7,"$":8,"%":9,"&":10,"'":11,"(":12,")":13,"*":14,"+":15,",":16,"-":17,".":18,"/":19,"0":20,"1":21,"2":22,"3":23,"4":24,"5":25,"6":26,"7":27,"8":28,"9":29,":":30,";":31,"<":32,"=":33,">":34,"?":35,"@":36,"A":37,"B":38,"C":39,"D":40,"E":41,"F":42,"G":43,"H":44,"I":45,"J":46,"K":47,"L":48,"M":49,"N":50,"O":51,"P":52,"Q":53,"R":54,"S":55,"T":56,"U":57,"V":58,"W":59,"X":60,"Y":61,"Z":62,"[":63,"\\":64,"]":65,"^":66,"_":67,"`":68,"a":69,"b":70,"c":71,"d":72,"e":73,"f":74,"g":75,"h":76,"i":77,"j":78,"k":79,"l":80,"m":81,"n":82,"o":83,"p":84,"q":85,"r":86,"s":87,"t":88,"u":89,"v":90,"w":91,"x":92,"y":93,"z":94,"{":95,"|":96,"}":97,"~":98,"¡":99,"¢":100,"£":101,"¤":102,"¥":103,"¦":104,"§":105,"¨":106,"©":107,"ª":108,"«":109,"¬":110,"®":111,"¯":112,"°":113,"±":114,"²":115,"³":116,"´":117,"µ":118,"¶":119,"·":120,"¸":121,"¹":122,"º":123,"»":124,"¼":125,"½":126,"¾":127,"¿":128,"À":129,"Á":130,"Â":131,"Ã":132,"Ä":133,"Å":134,"Æ":135,"Ç":136,"È":137,"É":138,"Ê":139,"Ë":140,"Ì":141,"Í":142,"Î":143,"Ï":144,"Ð":145,"Ñ":146,"Ò":147,"Ó":148,"Ô":149,"Õ":150,"Ö":151,"×":152,"Ø":153,"Ù":154,"Ú":155,"Û":156,"Ü":157,"Ý":158,"Þ":159,"ß":160,"à":161,"á":162,"â":163,"ã":164,"ä":165,"å":166,"æ":167,"ç":168,"è":169,"é":170,"ê":171,"ë":172,"ì":173,"í":174,"î":175,"ï":176,"ð":177,"ñ":178,"ò":179,"ó":180,"ô":181,"õ":182,"ö":183,"÷":184,"ø":185,"ù":186,"ú":187,"û":188,"ü":189,"ý":190,"þ":191,"ÿ":192,"Ā":193,"ā":194,"Ă":195,"ă":196,"Ą":197,"ą":198,"Ć":199,"ć":200,"Ĉ":201,"ĉ":202,"Ċ":203,"ċ":204,"Č":205,"č":206,"Ď":207,"ď":208,"Đ":209,"đ":210,"Ē":211,"ē":212,"Ĕ":213,"ĕ":214,"Ė":215,"ė":216,"Ę":217,"ę":218,"Ě":219,"ě":220,"Ĝ":221,"ĝ":222,"Ğ":223,"ğ":224,"Ġ":225,"ġ":226,"Ģ":227,"ģ":228,"Ĥ":229,"ĥ":230,"Ħ":231,"ħ":232,"Ĩ":233,"ĩ":234,"Ī":235,"ī":236,"Ĭ":237,"ĭ":238,"Į":239,"į":240,"İ":241,"ı":242,"Ĳ":243,"ĳ":244,"Ĵ":245,"ĵ":246,"Ķ":247,"ķ":248,"ĸ":249,"Ĺ":250,"ĺ":251,"Ļ":252,"ļ":253,"Ľ":254,"ľ":255,"Ŀ":256,"ŀ":257,"Ł":258,"ł":259,"Ń":260,"Ġt":261,"Ġa":262,"he":263,"in":264,"Ġthe":265,"Ġs":266,"re":267,"Ġw":268,"Ġo":269,"is":270,"er":271,"nd":272,"it":273,"at":274,"Ġf":275,"Ġm":276,"Ġb":277,"ing":278,"Ġc":279,"en":280,"es":281,"or":282,"ou":283,"Ġth":284,"on":285,"Ġh":286,"Ġp":287,"ll":288,"Ġof":289,"Ġand":290,"an":291,"Ġto":292,"ar":293,"Ġd":294,"ed":295,"as":296,"Ġin":297,"Ġl":298,"om":299,"Ġis":300,"ve":301,"ĠI":302,"br":303,"ic":304,"Ġg":305,"Ġn":306,"Ġ/":307,"Ġ/>":308,"le":309,"Ġe":310,"ot":311,"al":312,"ut":313,"st":314,"ct":315,"il":316,"Ġit":317,"Ġbe":318,"ie":319,"Ġmo":320,"ly":321,"ĠT":322,"Ġre":323,"Ġon":324,"Ġthat":325,"ow":326,"ver":327,"ad":328,"ent":329,"'s":330,"Ġhe":331,"ion":332,"Ġthis":333,"im":334,"ay":335,"Ġwh":336,"se":337,"Ġst":338,"et":339,"gh":340,"id":341,"ch":342,"Ġwas":343,"Ġmov":344,"Ġy":345,"Ġ/><":346,"ith":347,"ilm":348,"all":349,"Ġfilm":350,"oo":351,"Ġfor":352,"Ġas":353,"Ġu":354,"ce":355,"Ġwith":356,"Ġan":357,"ke":358,"ĠA":359,"am":360,"ld":361,"ĠS":362,"Ġse":363,"ive":364,"Ġmovie":365,"ir":366,"ĠThe":367,"ro":368,"Ġyou":369,"Ġha":370,".<":371,"ri":372,"ĠB":373,"her":374,"ur":375,"Ġbut":376,"ĠM":377,"ra":378,"Ġli":379,"Ġnot":380,"Ġwe":381,"'t":382,"ally":383,"ill":384,"ter":385,"Ġ(":386,"Ġne":387,"ĠC":388,"Ġ\"":389,"ck":390,"ĠH":391,"Ġare":392,"Ġsh":393,"ome":394,"Ġhis":395,"os":396,"Ġch":397,"pe":398,"ers":399,"..":400,"Ġat":401,"ould":402,"ul":403,"ĠW":404,"Ġhave":405,"ght":406,"if":407,"ĠD":408,"ust":409,"un":410,"em":411,"Ġj":412,"Ġsu":413,"Ġfr":414,"Ġsc":415,"out":416,"Ġact":417,"Ġdo":418,"ble":419,"ain":420,"Ġex":421,"Ġone":422,"ess":423,"Ġwho":424,"Ġk":425,"el":426,"Ġso":427,"very":428,"act":429,"Ġpl":430,"Ġcom":431,"ood":432,"Ġall":433,"ant":434,"Ġab":435,"art":436,"ies":437,"pp":438,"ak":439,"us":440,"Ġal":441,"Ġby":442,"ag":443,"Ġv":444,"ol":445,"est":446,"th":447,"op":448,"ous":449,"Ġde":450,"ĠP":451,"ist":452,"and":453,"Ġwor":454,"ĠR":455,"Ġfrom":456,"Ġthey":457,"Ġlike":458,"one":459,"ĠL":460,"Ġout":461,"ast":462,"Ġr":463,"ven":464,"Ġwhe":465,"Ġsome":466,"ĠF":467,"Ġint":468,"Ġor":469,"qu":470,"ation":471,"fe":472,"Ġcon":473,"um":474,"red":475,"ĠG":476,"ĠJ":477,"ough":478,"au":479,"Ġher":480,"ate":481,"Ġme":482,"ĠIt":483,"Ġjust":484,"Ġabout":485,"Ġhas":486,"res":487,"ich":488,"ind":489,"ard":490,"Ġpro":491,"ory":492,"ack":493,"Ġchar":494,"ĠN":495,"Ġcan":496,"ort":497,"pt":498,"Ġpos":499,"ative":500,"Ġtim":501,"Ġun":502,"ĠE":503,"his":504,"ig":505,"ud":506,"The":507,"ook":508,"ire":509,"ake":510,"Ġle":511,"Ġcharact":512,"ight":513,"Ġgood":514,"reat":515,"Ġany":516,"Ġwat":517,"Ġman":518,"Ġlo":519,"ong":520,"Ġup":521,"ĠO":522,"Ġtr":523,"itive":524,"Ġmore":525,"Ġget":526,"Ġgo":527,"Ġsee":528,"Ġno":529,"Ġwould":530,"ity":531,"Ġfe":532,"ound":533,"Ġvery":534,"Ġneg":535,"Ġpositive":536,"Ġwhat":537,"Ġnegative":538,"Ġmy":539,"ther":540,"Ġthere":541,"ame":542,"ite":543,"ge":544,"nt":545,"ide":546,"able":547,"Ġbec":548,"Ġstory":549,"Ġtime":550,"od":551,"Ġwhen":552,"Ġshe":553,"Ġ1":554,"hing":555,"Ġen":556,"ore":557,"Ġ-":558,"Ġscen":559,"Ġwere":560,"Ġhad":561,"oy":562,"Ġreally":563,"ure":564,"Ġif":565,"Ġtheir":566,"ell":567,"Ġwatch":568,"Ġshow":569,"Ġonly":570,"ci":571,"Ġhim":572,"itt":573,"ab":574,"Ġeven":575,"Ġother":576,"ink":577,"ick":578,"ĠK":579,"pl":580,"Ġper":581,"so":582,"Ġwhich":583,"Ġcl":584,"Ġthem":585,"our":586,"Ġkn":587,"man":588,"ine":589,"Ġdid":590,"Ġthan":591,"ond":592,"ment":593,"og":594,"te":595,"uch":596,"ious":597,"ars":598,"ays":599,"are":600,"Ġend":601,"Ġdoes":602,"ap":603,"ade":604,"ves":605,"ause":606,"Ġpe":607,"...":608,"Ġgreat":609,"ice":610,"Ġlook":611,"Ġmuch":612,"ue":613,"Ġbad":614,"Ġbet":615,"Ġqu":616,"Ġar":617,"ac":618,"Ġbeen":619,"Ġcould":620,"irect":621,"ople":622,"Ġim":623,"Ġwill":624,"ert":625,"irst":626,"ple":627,"Ġhow":628,"Ġpo":629,"ence":630,"Ġover":631,"Ġinto":632,"lf":633,"ĠThis":634,"ne":635,"Ġwell":636,"Ġpre":637,"Ġmost":638,"Ġknow":639,"ass":640,"ry":641,"Ġpeople":642,"int":643,"ose":644,"Ġthink":645,"Ġtw":646,"Ġro":647,"other":648,"for":649,"Ġdis":650,"Ġbecause":651,"Ġtoo":652,"Ġad":653,"age":654,"Ġus":655,"ff":656,"per":657,"Ġevery":658,"fter":659,"av":660,"Ġag":661,"Ġreal":662,"ors":663,"ful":664,"Ġam":665,"Ġmake":666,"Ġoff":667,"Ġdirect":668,"ish":669,"Ġpart":670,"Ġthing":671,"Ġfirst":672,"Ġmade":673,"ull":674,"ile":675,"ny":676,"Ġfun":677,"aw":678,"ict":679,"Ġway":680,"Ġalso":681,"hat":682,"ty":683,"ere":684,"oll":685,"ost":686,"Ġdon":687,"ian":688,"akes":689,"Ġmovies":690,"Ġseem":691,"Ġthr":692,"own":693,"Ġwr":694,"ary":695,"Ġ'":696,"Ġcharacter":697,"Ġits":698,"ated":699,"Ġgu":700,"ep":701,"ical":702,"gin":703,"Ġsp":704,"iew":705,"Ġcharacters":706,"Ġbl":707,"ace":708,"ob":709,"ress":710,"Ġwork":711,"ually":712,"ng":713,"Ġte":714,"ĠAnd":715,"fect":716,"ĠCh":717,"Ġfl":718,"hed":719,"Ġfilms":720,"cc":721,"pect":722,"ial":723,"Ġplay":724,"ĠY":725,"iz":726,"Ġseen":727,"Ġplot":728,"self":729,"Ġthen":730,"ĠV":731,"ving":732,"Ġyour":733,"Ġwant":734,"ces":735,"omet":736,"Ġye":737,"Ġbeing":738,"ĠBut":739,"Ġaw":740,"ance":741,"),":742,"Ġser":743,"Ġlove":744,"Ġmany":745,"Ġsay":746,"ittle":747,"Ġafter":748,"ang":749,"Ġtwo":750,"get":751,"Ġnever":752,"nder":753,"Ġacting":754,").":755,"ĠHe":756,"ans":757,"ens":758,"urn":759,"mer":760,"This":761,"Ġwhere":762,"ip":763,"ark":764,"Ġent":765,"Ġthrough":766,"ved":767,"ĠIn":768,"Ġ<":769,"Ġback":770,"Ġlife":771,"ach":772,"Ġbest":773,"Ġlittle":774,"Ġsomet":775,"Ġrem":776,"Ġever":777,"Ġhor":778,"ult":779,"Ġrec":780,"ild":781,"ily":782,"ather":783,"ber":784,"Ġdes":785,"Ġbetter":786,"we":787,"Ġbr":788,"du":789,"hy":790,"ise":791,"ions":792,"wn":793,"!!":794,"ual":795,"Ġscene":796,"vel":797,"ĠSt":798,"ru":799,"Ġfind":800,"be":801,"thing":802,"Ġperfor":803,"ought":804,"Ġspe":805,"Ġshould":806,"rap":807,"aking":808,"Ġsl":809,"Ġscenes":810,"vers":811,"Ġpr":812,"Ġcont":813,"ase":814,"iend":815,"ertain":816,"Ġfeel":817,"Ġmin":818,"less":819,"'ve":820,"Ġatt":821,"Ġunder":822,"Ġ2":823,"Ġgr":824,"me":825,"Ġi":826,"lie":827,"augh":828,"Ġagain":829,"ĠU":830,"ting":831,"ents":832,"ever":833,"Ġstill":834,"Ġhere":835,"ree":836,"erest":837,"ia":838,"les":839,"Ġri":840,"igh":841,"ning":842,"fore":843,"ren":844,"ĠThere":845,"Ġkill":846,"Ġsomething":847,"Ġinc":848,"ably":849,"ense":850,"'m":851,"Ġinterest":852,"Ġsuch":853,"Ġ19":854,"ating":855,"Ġhapp":856,"Ġimp":857,"Ġlot":858,"Ġthese":859,"Ġmay":860,"ations":861,"ave":862,"Ġcr":863,"arly":864,"ason":865,"ail":866,"Ġhum":867,"alk":868,"ath":869,"Ġsur":870,"Ġold":871,"Ġperforman":872,"Ġgi":873,"reen":874,"the":875,"Ġcast":876,"ror":877,"ock":878,"up":879,"ater":880,"Ġpoint":881,"ect":882,"iv":883,"Ġdoesn":884,"Ġmus":885,"Ġthose":886,"Ġactors":887,"Ġap":888,"Ġwatching":889,"ĠAl":890,"Ġfam":891,"Ġdidn":892,"joy":893,"Ġdec":894,"ying":895,"Ġres":896,"Ġra":897,"Ġsim":898,"Ġche":899,"Ġguy":900,"Ġyears":901,"Ġwom":902,"Ġfunny":903,"Ġcou":904,"Ġgir":905,"oth":906,"Ġgen":907,"ffect":908,"Ġview":909,"Ġenjoy":910,"Ġset":911,"Ġmakes":912,"Ġtra":913,"Ġstart":914,"Ġfact":915,"erson":916,"Ġbelie":917,"ute":918,"Ġdown":919,"edy":920,"Ġgoing":921,"ĠIf":922,"Ġcomp":923,"ool":924,"Ġsame":925,"Ġob":926,"iss":927,"az":928,"--":929,"oc":930,"Ġactually":931,"Ġfew":932,"Ġbefore":933,"Ġfin":934,"old":935,"Ġem":936,"Ġlong":937,"Ġev":938,"Ġsub":939,"der":940,"Ġdr":941,"ale":942,"Ġpret":943,"Ġprodu":944,"ience":945,"ft":946,"**":947,"Ġwhile":948,"cial":949,"Ġyoung":950,"Ġgot":951,"Ġnow":952,"Ġthought":953,"li":954,"Ġter":955,"rigin":956,"Ġown":957,"Ġwhy":958,"Ġdif":959,"ction":960,"Ġbig":961,"Ġdirector":962,"Ġke":963,"Ġbit":964,"'re":965,"ons":966,"Ġtri":967,"Ġthough":968,"ub":969,"Ġexce":970,"ript":971,"Ġturn":972,"hen":973,"Ġsupp":974,"Ġnothing":975,"Ġorigin":976,"ible":977,"ĠJo":978,"Ġanother":979,"aut":980,"Ġnew":981,"Ġsm":982,"Ġfriend":983,"ince":984,"Ġcomple":985,"iting":986,"Ġrel":987,"Ġ&":988,"Ġeffect":989,"Ġinv":990,"Ġgirl":991,"Ġaround":992,"rent":993,"Ġquite":994,"Ġseems":995,"Ġthings":996,"onder":997,"Ġpretty":998,"Ġapp":999,"00":1000,"ings":1001,"ew":1002,"Ġscreen":1003,"Ġenough":1004,"air":1005,"meric":1006,"ign":1007,"ched":1008,"ically":1009,"most":1010,"ib":1011,"Ġneed":1012,"Ġlaugh":1013,"ways":1014,"Ġright":1015,"ris":1016,"ween":1017,"ness":1018,"Ġhard":1019,"Ġscript":1020,"ank":1021,"Ġfar":1022,"Ġworld":1023,"Ġacc":1024,"Ġstr":1025,"Ġkid":1026,"Ġoriginal":1027,"Ġhigh":1028,"Ġperson":1029,"ately":1030,"Ġtake":1031,"ĠShe":1032,"app":1033,"ster":1034,"ead":1035,"Ġins":1036,"ced":1037,"Ġbetween":1038,"Ġkind":1039,"ention":1040,"Ġappe":1041,"Ġmust":1042,"rill":1043,"inem":1044,"Ġop":1045,"Ġmusic":1046,"Ġgive":1047,"ĠBr":1048,"Ġhorror":1049,"Ġes":1050,"hes":1051,"utes":1052,"Ġwonder":1053,"ĠAs":1054,"Ġrole":1055,"ward":1056,"Ġreason":1057,"\",":1058,"Ġsec":1059,"ord":1060,"vious":1061,"ash":1062,"its":1063,"Ġgets":1064,"Ġisn":1065,"Ġput":1066,"Ġsaw":1067,"Ġtimes":1068,"Ġmom":1069,"Ġtell":1070,"Ġalways":1071,"Ġseries":1072,"Ġwhole":1073,"aid":1074,"Ġbu":1075,"Ġaction":1076,"Ġsex":1077,"ĠAmeric":1078,"Ġleast":1079,"ased":1080,"Ġhel":1081,"icul":1082,"ĠYou":1083,"Ġinteresting":1084,"Ġmain":1085,"ody":1086,"oot":1087,"Ġcome":1088,"Ġcomedy":1089,"ĠThey":1090,"here":1091,"Ġread":1092,"Ġchild":1093,"Ġlead":1094,"Ġbeaut":1095,"Ġsound":1096,"Ġdone":1097,"Ġclass":1098,"Ġep":1099,"ner":1100,"ife":1101,"Ġboth":1102,"ĠHow":1103,"Ġwithout":1104,"Ġexpect":1105,"arr":1106,"Ġalmost":1107,"Ġide":1108,"Ġcons":1109,"Ġshot":1110,"Ġmight":1111,"Ġminutes":1112,"ully":1113,"gg":1114,"Ġcam":1115,"view":1116,"Ġcinem":1117,"hn":1118,"Ġhand":1119,"rible":1120,"Ġdiffe":1121,"'ll":1122,"Ġworth":1123,"Ġaud":1124,"xt":1125,"ines":1126,"Ġcomplete":1127,"bably":1128,"Ġexpl":1129,"ouse":1130,"uring":1131,"de":1132,"ĠSh":1133,"Ġco":1134,"Ġlast":1135,"Ġanything":1136,"ime":1137,"Ġperformance":1138,"stand":1139,"Ġbegin":1140,"though":1141,"Ġbook":1142,"Ġcare":1143,"son":1144,"Ġinst":1145,"ane":1146,"Ġcle":1147,"Ġcour":1148,"Ġfamily":1149,"Ġhelp":1150,"It":1151,"Ġcre":1152,"cially":1153,"ĠTh":1154,"\".":1155,"Ġ3":1156,"Ġentertain":1157,"ov":1158,"ism":1159,"Ġsince":1160,"Ġwar":1161,"Ġel":1162,"Ġcall":1163,"Ġfound":1164,"ĠTV":1165,"era":1166,"Ġaway":1167,"ograp":1168,"ialog":1169,"ĠFr":1170,"oney":1171,"mend":1172,"Ġext":1173,"Ġcar":1174,"istic":1175,"Ġsequ":1176,"ures":1177,"Ġprobably":1178,"Ġart":1179,"ition":1180,"atch":1181,"Ġdialog":1182,"ĠWh":1183,"ange":1184,"ros":1185,"Ġrun":1186,"Ġbo":1187,"Ġwoman":1188,"ER":1189,"Ġsure":1190,"VD":1191,"aster":1192,"als":1193,"ĠAn":1194,"ject":1195,"co":1196,"pecially":1197,"Ġlet":1198,"ret":1199,"Ġ10":1200,"Ġrather":1201,"ah":1202,"isod":1203,"ling":1204,"apt":1205,"Ġadd":1206,"led":1207,".\"":1208,"uck":1209,"oint":1210,"wh":1211,"Ġworst":1212,"ten":1213,"wood":1214,"Ġhappen":1215,"Ġabs":1216,"ĠDVD":1217,"Ġlik":1218,"Ġour":1219,"Ġmaking":1220,"Ġmean":1221,"ee":1222,"Ġvers":1223,"ither":1224,"Ġsurp":1225,"Ġcourse":1226,"alf":1227,"osed":1228,"Ġkeep":1229,"Ġanyone":1230,"Ġpoor":1231,"Ġepisod":1232,"ont":1233,"Ġbelieve":1234,"ok":1235,"Ġeach":1236,"Ġtrying":1237,"ollow":1238,"olly":1239,"Ġdifferent":1240,"Ġbeautif":1241,"Ġmind":1242,"ates":1243,"Ġdel":1244,"Ġbor":1245,"ĠJohn":1246,"Ġcomes":1247,"ady":1248,"Ġjob":1249,"ec":1250,"ommend":1251,"blem":1252,"Ġinter":1253,"umb":1254,"ingly":1255,"ex":1256,"Ġsense":1257,"Ġplace":1258,"hip":1259,"Ġending":1260,"Ġshows":1261,"Ġgoes":1262,"Ġplayed":1263,"fin":1264,"ĠSo":1265,"Ġrest":1266,"ĠThat":1267,"iter":1268,"ments":1269,"Ġty":1270,"Ġboy":1271,"Ġpol":1272,"ney":1273,"Ġless":1274,"empt":1275,"dd":1276,"ics":1277,"rist":1278,"Ġyet":1279,"Ġshort":1280,"iece":1281,"Ġday":1282,"Ġproblem":1283,"ope":1284,"atter":1285,"ĠWhat":1286,"'d":1287,"Ġperfect":1288,"Ġac":1289,"ray":1290,"Ġstand":1291,"Ġpres":1292,"ality":1293,"ks":1294,"arent":1295,"ilar":1296,"lud":1297,"Ġmem":1298,"Ġwatched":1299,"Ġrecommend":1300,"Ġwasn":1301,"Ġfan":1302,"ĠWe":1303,"ph":1304,"Ġlooks":1305,"Ġlooking":1306,"Ġeffects":1307,"Ġport":1308,"Ġsuper":1309,"Ġmoney":1310,"ream":1311,"ower":1312,"ortun":1313,"aps":1314,"gr":1315,"Ġactor":1316,"Ġhalf":1317,"ann":1318,"sp":1319,"Ġgl":1320,"Ġconf":1321,"way":1322,"Ġdram":1323,"ident":1324,"Ġfollow":1325,"io":1326,"Ġsit":1327,"ĠNot":1328,"....":1329,"Ġplays":1330,"Ġcertain":1331,"gether":1332,"Ġtogether":1333,"Ġaudience":1334,"Ġfav":1335,"Ġhead":1336,"Ġmiss":1337,"Ġsaid":1338,"ied":1339,"sc":1340,"Ġunderstand":1341,"llent":1342,"arn":1343,"land":1344,"ĠTH":1345,"ĠDe":1346,"Ġsomeone":1347,"Ġdep":1348,"Ġhaving":1349,"Ġelse":1350,"ues":1351,"Ġtakes":1352,"Ġreview":1353,"Ġsecond":1354,"Ġhimself":1355,"Ġtalk":1356,"Ġimag":1357,"Ġmon":1358,"Ġthree":1359,"Ġposs":1360,"Ġleft":1361,"Ġnice":1362,"Ġed":1363,"Ġtrue":1364,"ames":1365,"Ġrele":1366,"sy":1367,"not":1368,"udget":1369,"day":1370,"Ġversion":1371,"cept":1372,"ollywood":1373,"Ġspecial":1374,"Ġnight":1375,"10":1376,"ature":1377,"ix":1378,"ĠBl":1379,"Ġfall":1380,"upid":1381,"Ġfriends":1382,"Ġespecially":1383,"Ġidea":1384,"Ġvis":1385,"ited":1386,"atic":1387,"ists":1388,"ĠAmerican":1389,"cing":1390,"uff":1391,"ply":1392,"Ġcomm":1393,"ional":1394,"Ġuse":1395,"ĠAll":1396,"Ġcame":1397,"Ġph":1398,"Ġentire":1399,"Ġeverything":1400,"ross":1401,"ĠFor":1402,"ted":1403,"Ġobvious":1404,"ired":1405,"Ġsch":1406,"Ġhour":1407,"Ġinvol":1408,"ier":1409,"Ġey":1410,"Ġbeautiful":1411,"ared":1412,"Ġseeing":1413,"Ġdet":1414,"Ġwife":1415,"Ġexcellent":1416,"Ġsing":1417,"Ġdist":1418,"Ġmur":1419,"ides":1420,"Ġsk":1421,"Ġduring":1422,"Ġtot":1423,"amp":1424,"ien":1425,"Ġhome":1426,"Ġlater":1427,"Ġeveryone":1428,"fully":1429,"Ġexc":1430,"Ġstupid":1431,"Ġele":1432,"Ġmen":1433,"my":1434,"Ġlack":1435,"appoint":1436,"ount":1437,"ĠRob":1438,"Ġattempt":1439,"Ġused":1440,"ĠBe":1441,"Ġexper":1442,"Ġyear":1443,"ĠSp":1444,"ird":1445,"Ġtal":1446,"Ġonce":1447,"Ġlow":1448,"Ġremem":1449,"ĠSc":1450,"omb":1451,"Ġcompletely":1452,"ery":1453,"ins":1454,"like":1455,"Ġcreat":1456,"Ġmar":1457,"ĠUn":1458,"Ġfather":1459,"Ġdisappoint":1460,"Ġfight":1461,"Ġdeath":1462,"Ġhist":1463,"olute":1464,"Ġass":1465,"Ġtop":1466,"Ġunt":1467,"ains":1468,"Ġopen":1469,"yle":1470,"orn":1471,"Ġsimply":1472,"Ġhuman":1473,"att":1474,"oss":1475,"Ġrep":1476,"iol":1477,"Ġserious":1478,"ove":1479,"Ġ4":1480,"ract":1481,"ĠCl":1482,"ĠSte":1483,"Ġcop":1484,"Ġword":1485,"Ġbeh":1486,"Ġexp":1487,"but":1488,"Ġanim":1489,"ĠAr":1490,"ĠWhen":1491,"Ġret":1492,"ork":1493,"Ġloc":1494,"Ġstud":1495,"Ġdefin":1496,"aring":1497,"Ġwrong":1498,"Ġtit":1499,"ĠRe":1500,"Ġsong":1501,"ets":1502,"ography":1503,"Ġsy":1504,"Ġinclud":1505,"Ġgener":1506,"orm":1507,"Ġemot":1508,"Ġalong":1509,"ott":1510,"ĠAt":1511,"Ġcra":1512,"ĠHollywood":1513,"ideo":1514,"Ġmess":1515,"Ġpict":1516,"Ġheart":1517,"Ġ--":1518,"Ġperformances":1519,"Ġtry":1520,"Ġsupposed":1521,"Ġeither":1522,"Ġcamera":1523,"In":1524,"Ġgra":1525,"ĠMar":1526,"itten":1527,"Ġabsolute":1528,"Ġfail":1529,"Ġboring":1530,"uly":1531,"ider":1532,"Ġkids":1533,"Ġdra":1534,"idd":1535,"ĠZ":1536,"Ġline":1537,"Ġcount":1538,"Ġblack":1539,"vin":1540,"Ġeas":1541,"Ġcouple":1542,"fic":1543,"Ġschool":1544,"ote":1545,"Ġproduction":1546,"Ġ8":1547,"Ġsmall":1548,"ax":1549,"Ġpass":1550,"Ã©":1551,"ĠChrist":1552,"Ġexam":1553,"Ġind":1554,"Ġclassic":1555,"elt":1556,"oice":1557,"Ġbas":1558,"Ġsurpris":1559,"Ġhope":1560,"uth":1561,"Ġgiven":1562,"ĠHowever":1563,"vis":1564,"Ġwomen":1565,"haps":1566,"ĠMy":1567,"Ġbecom":1568,"iant":1569,"Ġbudget":1570,"med":1571,"ĠOne":1572,"Ġ5":1573,"Ġconc":1574,"Ġsort":1575,"oon":1576,"com":1577,"Ġfavor":1578,"itely":1579,"Ġuntil":1580,"Ġparticul":1581,"Ġlight":1582,"Ġtruly":1583,"Ġhumor":1584,"Ġrom":1585,"Ġsad":1586,"Ġflick":1587,"Ġportray":1588,"Ġcred":1589,"ities":1590,"Ġwon":1591,"Ġhouse":1592,"Ġmoments":1593,"Ġhero":1594,"ize":1595,"Ġname":1596,"Ġfull":1597,"Ġitself":1598,"Ġviol":1599,"sel":1600,"Ġstar":1601,"play":1602,"velop":1603,"IN":1604,"fortun":1605,"Ġple":1606,"Ġgetting":1607,"iness":1608,"Ġamaz":1609,"Ġinstead":1610,"ton":1611,"Ġawful":1612,"Ġpain":1613,"ike":1614,"ows":1615,"ĠÂ":1616,"Ġremember":1617,"ility":1618,"aj":1619,"Ġnext":1620,"tern":1621,"ently":1622,"ĠNo":1623,"ric":1624,"Ġterrible":1625,"Ġexcept":1626,"reak":1627,"ĠSe":1628,"Ġgives":1629,"Ġdoing":1630,"Ġguess":1631,"ĠCar":1632,"Ġmother":1633,"Ġwa":1634,"Ġepisode":1635,"cy":1636,"Ġcoll":1637,"Ġplaying":1638,"Ġtalent":1639,"Ġface":1640,"ories":1641,"ug":1642,"Ġreg":1643,"Ġlines":1644,"itch":1645,"Ġhowever":1646,"Ġdialogue":1647,"Ġ7":1648,"ister":1649,"reme":1650,"que":1651,"Ġwonderful":1652,"ĠMr":1653,"Ġothers":1654,"ps":1655,"illy":1656,"Ġvideo":1657,"Ġoften":1658,"Ġwent":1659,"ony":1660,"ument":1661,",\"":1662,"imes":1663,"Ġcouldn":1664,"Ġpiece":1665,"Ġcor":1666,"ĠMan":1667,"ger":1668,"Ġpower":1669,"Ġform":1670,"Ġdead":1671,"If":1672,"Ġcut":1673,"Ġslow":1674,"Ġbecome":1675,"Ġbrill":1676,"Ġ9":1677,"Ġearly":1678,"Ġimpress":1679,"vent":1680,"Ġliked":1681,"Ġlive":1682,"Ġann":1683,"ĠTHE":1684,"ured":1685,"olog":1686,"aughter":1687,"Ġ.":1688,"Ġquest":1689,"ming":1690,"Ġdevelop":1691,"ized":1692,"ĠLe":1693,"ĠJack":1694,"Ġentertaining":1695,"Ġclose":1696,"ibly":1697,"yn":1698,"Ġcase":1699,"ĠOn":1700,"ĠDon":1701,"line":1702,"Ġref":1703,"cess":1704,"Ġmaybe":1705,"right":1706,"Ġmention":1707,"enn":1708,"Ġfelt":1709,"oid":1710,"Ġchildren":1711,"ael":1712,"Ġstyle":1713,"het":1714,"ĠWill":1715,"Ġstars":1716,"There":1717,"body":1718,"ĠWell":1719,"used":1720,"Ġrelations":1721,"Ġmatter":1722,"ler":1723,"Ġstrong":1724,"Ġtrans":1725,"lish":1726,"Ġabsolutely":1727,"ley":1728,"Ġdark":1729,"Ġz":1730,"Ġactress":1731,"Ġtitle":1732,"Ġworse":1733,"Ġrent":1734,"Ġrid":1735,"und":1736,"ccess":1737,"Ġbeginning":1738,"oub":1739,"ular":1740,"Ġguys":1741,"Ġside":1742,"uss":1743,"pite":1744,"Ġmis":1745,"Ġwaste":1746,"Ġdefinitely":1747,"riend":1748,"ined":1749,"Ġcertainly":1750,"Ġwritten":1751,"Ġagainst":1752,"by":1753,"ific":1754,"Ġfant":1755,"Ġextreme":1756,"Ġseemed":1757,"selves":1758,"ready":1759,"Ġloved":1760,"ĠHis":1761,"unch":1762,"Ġsever":1763,"pped":1764,"ĠNew":1765,"Ġpast":1766,"ape":1767,"Ġcinema":1768,"Ġbrilliant":1769,"Ġwanted":1770,"ĠDav":1771,"ts":1772,"Ġseveral":1773,"unk":1774,"ichael":1775,"atur":1776,"Ġpicture":1777,"ison":1778,"Ġpop":1779,"Ġbecomes":1780,"fortunately":1781,"Ġsw":1782,"Ġpred":1783,"Ġalready":1784,"Ġrelationship":1785,"Ġexample":1786,"ĠEven":1787,"Ġsomew":1788,"ĠEng":1789,"ung":1790,"Ġsuccess":1791,"Ġtotally":1792,"Ġdrama":1793,"aken":1794,"vable":1795,"Ġadm":1796,"Ġmaster":1797,"osp":1798,"Ġblood":1799,"Ġable":1800,"Ġthrill":1801,"Ġlives":1802,"Ġdem":1803,"Ġgame":1804,"gu":1805,"Ġdirection":1806,"rew":1807,"Ġfans":1808,"Ġpar":1809,"iam":1810,"Ġalthough":1811,"ief":1812,"Ġcalled":1813,"Ġpur":1814,"Ġet":1815,"ĠHar":1816,"ided":1817,"sh":1818,"Ġprov":1819,"Ġdeal":1820,"Ġsupport":1821,"Ġstuff":1822,"Ġgrou":1823,"ried":1824,"Ġav":1825,"ĠMc":1826,"Ġfine":1827,"Ġtou":1828,"Ġcapt":1829,"ĠÂĸ":1830,"Ġwalk":1831,"Ġcent":1832,"Ġself":1833,"Ġquality":1834,"Ġwants":1835,"Ġbrother":1836,"Ġtown":1837,"!<":1838,"Ġdeser":1839,"Ġdoc":1840,"aving":1841,").<":1842,"??":1843,"ĠSome":1844,"ĠTo":1845,"oke":1846,"ages":1847,"Ġmor":1848,"Ġcomment":1849,"Ġwriting":1850,"Ġbased":1851,"use":1852,"Ġlist":1853,"ĠIs":1854,"Ġeff":1855,"Ġbra":1856,"Ġworks":1857,"Ġthroughout":1858,"amed":1859,"Ġlost":1860,"Ġdaughter":1861,"oil":1862,"orge":1863,"Ġannoy":1864,"Ġocc":1865,"Ġval":1866,"ĠChar":1867,"Ġvill":1868,"off":1869,"Ġsitu":1870,"chn":1871,"OT":1872,"rib":1873,"Ġtries":1874,"sych":1875,"Ġviewer":1876,"to":1877,"Ġhistory":1878,"Ġsn":1879,"using":1880,"Ġpat":1881,"Ġimport":1882,"Ġenjoyed":1883,"Ġson":1884,"Ġpresent":1885,"Ġgave":1886,"ination":1887,"Ġmed":1888,"Ġsusp":1889,"Ġfair":1890,"Ġnum":1891,"Ġfinal":1892,"ches":1893,"19":1894,"Ġsat":1895,"Ġmag":1896,"ient":1897,"ms":1898,"Ġhon":1899,"ik":1900,"Ġlearn":1901,"ĠAfter":1902,"ude":1903,"Ġturns":1904,"Ġparts":1905,"Ġappear":1906,"Ġcrit":1907,"Ġfem":1908,"ovie":1909,"Ġamazing":1910,"Ġetc":1911,"Ġnovel":1912,"Ġtoday":1913,"Ġstra":1914,"ern":1915,"rodu":1916,"arth":1917,"Ġthemselves":1918,"Ġfinally":1919,"Ġcol":1920,"Ġdays":1921,"Ġfavorite":1922,"Ġinf":1923,"Ġteen":1924,"Ġprom":1925,"Ġgenre":1926,"ox":1927,"ajor":1928,"ished":1929,"Ġcontin":1930,"Ġhorrible":1931,"Ġfoot":1932,"Ġcult":1933,"Ġlevel":1934,"Ġlate":1935,"Ġmoment":1936,"Ġshoot":1937,"As":1938,"Ġhilar":1939,"tra":1940,"ene":1941,"Ġgroup":1942,"Ġfeat":1943,"ĠMichael":1944,"Ġstarts":1945,"rop":1946,"Ġexact":1947,"ards":1948,"Ġbehind":1949,"ĠThen":1950,"Ġmyself":1951,"Ġdocument":1952,"Ġir":1953,"Ġfig":1954,"yp":1955,"Ġstop":1956,"okes":1957,"Ġask":1958,"Ġkilled":1959,"Ġ,":1960,"Ġkiller":1961,"Ġpick":1962,"Ġtyp":1963,"Ġconsider":1964,"Ġsays":1965,"Ġopp":1966,"Ġcost":1967,"Ġmyster":1968,"ĠGer":1969,"ĠRobert":1970,"ĠEd":1971,"iculous":1972,"Ġdeli":1973,"astic":1974,"Ġeffort":1975,"ĠWith":1976,"Ġincred":1977,"Ġtook":1978,"Ġeyes":1979,"els":1980,"band":1981,"Ġthinking":1982,"ĠHer":1983,"ĠAlso":1984,"arb":1985,"eth":1986,"ats":1987,"akers":1988,"ese":1989,"Ġhappens":1990,"Ġdecent":1991,"antly":1992,"Ġmot":1993,"Ġheard":1994,"ump":1995,"ior":1996,"Ġbus":1997,"Ġvoice":1998,"Ġexperience":1999,"AN":2000,"Ġintell":2001,"ey":2002,"urt":2003,"Ġconst":2004,"Ġevil":2005,"Ġmurder":2006,"Ġfa":2007,"ĠDan":2008,"Ġhilarious":2009,"uge":2010,"Ġfore":2011,"ives":2012,"Ġfeeling":2013,"na":2014,"Ġsoon":2015,"Ġtype":2016,"dy":2017,"usband":2018,"ĠBrit":2019,"Ġcinemat":2020,"ST":2021,"ĠOf":2022,"owing":2023,"uc":2024,"ĠGr":2025,"Ġperhaps":2026,"Ġgirls":2027,"Ġnon":2028,"ĠGe":2029,"gs":2030,"Ġtele":2031,"ences":2032,"ĠQ":2033,"AT":2034,"Ġpsych":2035,".)":2036,"aul":2037,"Ġmajor":2038,"Ġchang":2039,"Ġinvolved":2040,"Ġprof":2041,"Ġstru":2042,"ĠWar":2043,"Ġridiculous":2044,"Ġroles":2045,"Ġdirected":2046,"ters":2047,"ering":2048,"Ġhit":2049,"Ġopin":2050,"What":2051,"Ġsle":2052,"Ġtold":2053,"antic":2054,"Ġste":2055,"Ġcannot":2056,"Ġhold":2057,"ances":2058,"zy":2059,"ator":2060,"ĠWhy":2061,"Ġesc":2062,"Ġstories":2063,"Ġroom":2064,"ĠInd":2065,"Ġchance":2066,"ĠGod":2067,"Ġpredict":2068,"aves":2069,"Ġlooked":2070,"Ġcheap":2071,"Ġsol":2072,"Ġwhite":2073,"Ġscore":2074,"Ġextremely":2075,"ement":2076,"ians":2077,"ots":2078,"ĠMay":2079,"Ġresult":2080,"Ġdream":2081,"Ġwin":2082,"Ġhusband":2083,"Ġdisco":2084,"anger":2085,"how":2086,"Ġmove":2087,"Ġleave":2088,"aced":2089,"Ġcrap":2090,"Ġuni":2091,"side":2092,"iddle":2093,"nded":2094,"Ġago":2095,"Ġstre":2096,"any":2097,"Ġquick":2098,"Ġshown":2099,"Ġwouldn":2100,"urb":2101,"Ġhappened":2102,"Ġcoming":2103,"Ġviolence":2104,"Ġcool":2105,"ĠJust":2106,"LL":2107,"Ġweak":2108,"Ġbring":2109,"rench":2110,"aces":2111,"ĠWhile":2112,"Ġdri":2113,"Ġevent":2114,"OR":2115,"ones":2116,"ON":2117,"Ġswe":2118,"Ġant":2119,"Ġ6":2120,"Ġsimple":2121,"vol":2122,"Ġshock":2123,"Ġtaken":2124,"ational":2125,"Ġtechn":2126,"And":2127,"ution":2128,"vision":2129,"cer":2130,"Ġdesc":2131,"Ġmusical":2132,"ĠPl":2133,"Ġsubject":2134,"iet":2135,"ron":2136,"ĠEnglish":2137,"aged":2138,"che":2139,"Ġage":2140,"ĠEvery":2141,"gan":2142,"cks":2143,"ĠOr":2144,"mb":2145,"Ġbreak":2146,"But":2147,"mp":2148,"nds":2149,"wards":2150,"Ġcountry":2151,"Ġknown":2152,"AR":2153,"Ġvar":2154,"mm":2155,"rest":2156,"iety":2157,"ole":2158,"Ġacross":2159,"Ġobviously":2160,"Ġ200":2161,"Ġcareer":2162,"rit":2163,"Ġreturn":2164,"Ġpolit":2165,"ury":2166,"ĠNow":2167,"ered":2168,"itting":2169,"ground":2170,"Ġstay":2171,"pping":2172,"!!!":2173,"ky":2174,"Ġhighly":2175,"ield":2176,"...<":2177,"Ġinde":2178,"Ġapparent":2179,"Ġopening":2180,"Ġphot":2181,"Ġhuge":2182,"ys":2183,"Ġreleased":2184,"Ġcomed":2185,"ĠPet":2186,"Ġsaying":2187,"Ġfour":2188,"Ġang":2189,"Ġexactly":2190,"Ġfoc":2191,"Ġjokes":2192,"ral":2193,"Ġyourself":2194,"Ġdev":2195,"Ġsuspense":2196,"Ġhours":2197,"Ġannoying":2198,"Ġbody":2199,"Ġdoub":2200,"Ġlar":2201,"ctor":2202,"Ġfut":2203,"ĠKe":2204,"Ġdeep":2205,"Ġbuild":2206,"ĠCon":2207,"Ġparticularly":2208,"Ġorder":2209,"rence":2210,"ĠDavid":2211,"ubl":2212,"Ġsimilar":2213,"omp":2214,"Ġopinion":2215,"ina":2216,"real":2217,"Ġreality":2218,"Ġdisc":2219,"Ġgun":2220,"ball":2221,"Ġsometimes":2222,"enty":2223,"Ġpay":2224,"ili":2225,"Ġcinematography":2226,"Ġstarted":2227,"outh":2228,"ĠJames":2229,"Ġprem":2230,"Ġshots":2231,"Ġstrange":2232,"Ġwriter":2233,"oul":2234,"Ġpossible":2235,"Ġones":2236,"Ġnumber":2237,"iction":2238,"Ġpull":2239,"Ġtreat":2240,"Ġends":2241,"Ġdest":2242,"hetic":2243,"Ġill":2244,"Ġgore":2245,"bel":2246,"eng":2247,"ential":2248,"aim":2249,"read":2250,"Ġdocumentary":2251,"Ġsubt":2252,"Ġnear":2253,"Ġsave":2254,"Ġchange":2255,"Ġhot":2256,"ino":2257,"estern":2258,"****":2259,"Ġwish":2260,"Ġfill":2261,"Ġforget":2262,"Ġpolice":2263,"Ġnarr":2264,"Ġdisappointed":2265,"Ġmoder":2266,"Ġwhose":2267,"Ġimportant":2268,"Ġhonest":2269,"Ġwee":2270,"Ġusual":2271,"Ġfilmm":2272,"Ġparent":2273,"Ġalone":2274,"ouble":2275,"Ġprot":2276,"Ġliving":2277,"Ġteam":2278,"rise":2279,"Ġsister":2280,"Ġpri":2281,"Ġdetail":2282,"Ġsomewhat":2283,"wise":2284,"Ġturned":2285,"Ġfemale":2286,"Ġknew":2287,"Ġlocal":2288,"orth":2289,"ĠGerman":2290,"Ġair":2291,"ĠDo":2292,"Ġunc":2293,"Ġfinds":2294,"yond":2295,"ĠAm":2296,"ING":2297,"oud":2298,"apan":2299,"Ġ20":2300,"Ġdru":2301,"ĠTom":2302,"Ġknows":2303,"Ġattention":2304,"Ġrunning":2305,"Ġsingle":2306,"ĠPer":2307,"ĠPe":2308,"Ġrating":2309,"reci":2310,"ichÃ©":2311,"Ġsilly":2312,"!\"":2313,"ald":2314,"Ġwords":2315,"Ġvict":2316,"ĠRich":2317,"Ġproblems":2318,"Ġsent":2319,"lling":2320,"Ġstraight":2321,"inc":2322,"Ġtaking":2323,"Ġpot":2324,"Ġremind":2325,"ean":2326,"oof":2327,"Al":2328,"gy":2329,"Ġsold":2330,"mosp":2331,"unt":2332,"Ġepisodes":2333,"Ġmist":2334,"ained":2335,"Ġten":2336,"arch":2337,"head":2338,"Ġland":2339,"Ġmiddle":2340,"Ġdespite":2341,"Ġsequence":2342,"Ġcontro":2343,"Ġmeet":2344,"which":2345,"Ġinn":2346,"ires":2347,"Ġut":2348,"ush":2349,"Ġamong":2350,"ital":2351,"ĠAd":2352,"Ġrespect":2353,"Ġequ":2354,"Ġplan":2355,"Ġtouch":2356,"ised":2357,"Ġbel":2358,"Ġhell":2359,"Ġconvin":2360,"orable":2361,"ants":2362,"rom":2363,"Ġcompl":2364,"Ġusually":2365,"Ġatmosp":2366,"rely":2367,"Ġtalking":2368,"Ġcart":2369,"form":2370,"Ġevents":2371,"track":2372,"EN":2373,"ĠclichÃ©":2374,"usion":2375,"Ġmodern":2376,"Ġaren":2377,"Ġtells":2378,"Ġincluding":2379,"ĠBritish":2380,"back":2381,"ĠOsc":2382,"Ġsign":2383,"Ġeng":2384,"Ġca":2385,"Ġunf":2386,"Ġhands":2387,"Ġforg":2388,"Ġtelevision":2389,"Ġdue":2390,"ĠJapan":2391,"ram":2392,"otic":2393,"tim":2394,"Ġgang":2395,"light":2396,"aker":2397,"ubb":2398,"Ġintellig":2399,"Ġmater":2400,"Ġve":2401,"Ġhop":2402,"ĠNe":2403,"Ġprevious":2404,"Ġmark":2405,"Ġappears":2406,"Ġquestion":2407,"ĠEl":2408,"Ġappreci":2409,"ĠWilliam":2410,"iod":2411,"Ġdull":2412,"Ġbox":2413,"ĠPh":2414,"Ġsets":2415,"Ġ80":2416,"Ġmostly":2417,"Ġenjoyable":2418,"Ġpredictable":2419,"Ġreve":2420,"ously":2421,"Ġsongs":2422,"My":2423,"aught":2424,"Ġhate":2425,"Ġodd":2426,"Ġseason":2427,"Ġscary":2428,"Ġsoundtrack":2429,"Ġromantic":2430,"Ġmaterial":2431,"iest":2432,"Ġaspect":2433,"attle":2434,"Ġupon":2435,"Ġapart":2436,"where":2437,"Ġnone":2438,"Ġhappy":2439,"Ġpleas":2440,"orry":2441,"Ġseriously":2442,"Ġbeyond":2443,"Ġclear":2444,"Ġadv":2445,"go":2446,"uri":2447,"oe":2448,"Ġcheck":2449,"Ġways":2450,"Ġul":2451,"Ġcamp":2452,"Ġhaven":2453,"Ġclearly":2454,"Ġeye":2455,"Ġdoubt":2456,"Ġcomic":2457,"Ġspir":2458,"Ġabove":2459,"irector":2460,"Ġgiving":2461,"nding":2462,"Ġsurprised":2463,"oun":2464,"Ġflaw":2465,"Ġsequel":2466,"who":2467,"Ġeasily":2468,"Ġvisual":2469,"Ġfuture":2470,"Ġneeds":2471,"Ġtried":2472,"ĠAny":2473,"Ġear":2474,"key":2475,"Ġfeature":2476,"Ġ197":2477,"ublic":2478,"over":2479,"ĠDr":2480,"ĠSam":2481,"Ġsexual":2482,"row":2483,"asc":2484,"ĠPaul":2485,"asy":2486,"Ġslight":2487,"Ġfalls":2488,"Ġvictim":2489,"work":2490,"Ġmessage":2491,"Ġtheat":2492,"ggest":2493,"Ġcreep":2494,"Ġfast":2495,"ĠIM":2496,"Ġshowing":2497,"Ġaccept":2498,"An":2499,"ressed":2500,"Ġbunch":2501,"ara":2502,"rated":2503,"Ġbar":2504,"Ġentertainment":2505,"St":2506,"Ġmet":2507,"Ġstoryline":2508,"Ġrelease":2509,"ension":2510,"Ġsetting":2511,"cl":2512,"Ġtheme":2513,"Ġadult":2514,"Ġmoving":2515,"?<":2516,"Ġsuggest":2517,"Ġ198":2518,"!!!!":2519,"iel":2520,"oose":2521,"inal":2522,"Ġtwist":2523,"Ġpersonal":2524,"Ġactual":2525,"Ġexist":2526,"ival":2527,"ices":2528,"Ġperiod":2529,"verage":2530,"',":2531,"EA":2532,"ening":2533,"let":2534,"irt":2535,"Ġemb":2536,"orld":2537,"Ġadapt":2538,"Ġlarge":2539,"ĠFrench":2540,"Ġsupporting":2541,"iment":2542,"Ġsurv":2543,"Ġzomb":2544,"ficult":2545,"wr":2546,"Ġmeans":2547,"Ġmil":2548,"Ġkept":2549,"Ġnamed":2550,"aur":2551,"Ġfeels":2552,"Ġeasy":2553,"Ġattack":2554,"Ġcomments":2555,"Ġparents":2556,"Ġelements":2557,"ĠDis":2558,"!)":2559,"IL":2560,"Ġdifficult":2561,"Ġiss":2562,"ĠMor":2563,"Ġpost":2564,"bs":2565,"uses":2566,"Ġspoil":2567,"Ġsecret":2568,"Ġfell":2569,"Ġdecided":2570,"Ġpoints":2571,"Ġthriller":2572,"Ġcomb":2573,"Ġherself":2574,"upp":2575,"ĠGeorge":2576,"Ġfilmed":2577,"Ġworking":2578,"ceed":2579,"ĠNOT":2580,"Ġfree":2581,"Ġwithin":2582,"Ġsuperb":2583,"Ġru":2584,"Ġviewing":2585,"Ġviewers":2586,"ially":2587,"kay":2588,"ĠItal":2589,"Wh":2590,"Ġinsp":2591,"Ġbro":2592,"Ġtre":2593,"ĠFrank":2594,"Ġoverall":2595,"atural":2596,"bers":2597,"Ġtypical":2598,"Ġediting":2599,"ĠTr":2600,"ges":2601,"ĠUS":2602,"Ġbelievable":2603,"ĠYork":2604,"Ġbrought":2605,"Ġhear":2606,"Ġrealistic":2607,"oor":2608,"Ġdie":2609,"Ġsuff":2610,"Ġintrodu":2611,"Ġspeak":2612,"Ġnearly":2613,"Ġtruth":2614,"Ġbuy":2615,"gic":2616,"OU":2617,"bo":2618,"Ġreviews":2619,"ĠOscar":2620,"ising":2621,"ĠRichard":2622,"ĠGu":2623,"Ġleads":2624,"Ġwit":2625,"of":2626,"Ġusing":2627,"So":2628,"aling":2629,"Ch":2630,"Ġsil":2631,"eg":2632,"lin":2633,"cious":2634,"Ġbegins":2635,"ma":2636,"Ġbusiness":2637,"Ġmix":2638,"Ġfigure":2639,"Ġfamous":2640,"esy":2641,"Ġgreatest":2642,"Ġsequences":2643,"Ġcur":2644,"aby":2645,"Ġwhether":2646,"Ġcity":2647,"atever":2648,"Ġpremise":2649,"Ġtheater":2650,"Ġweird":2651,"Ġwrit":2652,"Ġbackground":2653,"You":2654,"Ġmeaning":2655,"ĠAmerica":2656,"Ġdan":2657,"Ġbasically":2658,"piece":2659,"sw":2660,"Ġexpected":2661,"Ġatmosphere":2662,"Ġclim":2663,"Ġnorm":2664,"Ġsoc":2665,"Ġparticular":2666,"Ġtale":2667,"Ġfive":2668,"Ġobs":2669,"ĠOK":2670,"verall":2671,"Ġsens":2672,"rific":2673,"ĠJul":2674,"Ġfantastic":2675,"esome":2676,"Ġdumb":2677,"Ġanimation":2678,"Ġsituation":2679,"ES":2680,"Ġfront":2681,"omin":2682,"more":2683,"Âħ":2684,"ĠOh":2685,"af":2686,"Ġ*":2687,"irc":2688,"ĠCol":2689,"Ġcrime":2690,"Ġwait":2691,"Ġund":2692,"Ġ199":2693,"lfriend":2694,"ining":2695,"lier":2696,"ĠMaybe":2697,"ĠSch":2698,"dden":2699,"?\"":2700,"Ġpure":2701,"Ġid":2702,"ula":2703,"ĠAlthough":2704,"set":2705,"Ġstun":2706,"ogn":2707,"One":2708,"iences":2709,"hic":2710,"Ġsurprise":2711,"ĠJim":2712,"Ġrock":2713,"ĠAust":2714,"Ġred":2715,"ĠIMD":2716,"time":2717,"ĠPr":2718,"fer":2719,"Ġlim":2720,"ĠSim":2721,"Ġleaves":2722,"Ġdog":2723,"Ġlots":2724,"Ġcrew":2725,"lect":2726,"ively":2727,"Ġkilling":2728,"Ġpoorly":2729,"icks":2730,"Ġbecame":2731,"Ġapparently":2732,"uro":2733,"Ġemotional":2734,"urther":2735,"Ġfootage":2736,"Ġappro":2737,"Ġutter":2738,"Ġtast":2739,"Ġresp":2740,"Ġneeded":2741,"Ġstere":2742,"Ġwood":2743,"Ġrese":2744,"hys":2745,"ĠUnfortunately":2746,"ĠLee":2747,"Ġinte":2748,"Ġavoid":2749,"ored":2750,"Ġstri":2751,"Ġforced":2752,"Ġcat":2753,"ager":2754,"ĠPeter":2755,"Th":2756,"Ġlame":2757,"Ġ/>\"":2758,"ye":2759,"Ġaverage":2760,"Ġgone":2761,"Ġsudden":2762,"Ġbored":2763,"Ġstrugg":2764,"Ġwind":2765,"Ġclever":2766,"Ġexec":2767,"Ġmemorable":2768,"Ġgrand":2769,"Ġstage":2770,"'.":2771,"Ġcredits":2772,"Ġmale":2773,"arre":2774,"bert":2775,"ĠMon":2776,"Ġallow":2777,"ĠGra":2778,"ĠAng":2779,"spect":2780,"pend":2781,"Ġcopy":2782,"bb":2783,"Ġpublic":2784,"ĠKing":2785,"Ġminute":2786,"Ġwrite":2787,"When":2788,"Ġ$":2789,"Ġsick":2790,"rey":2791,"Ġsociety":2792,"Ġinterested":2793,"friend":2794,"Ġmonster":2795,"Ġprop":2796,"Ġshame":2797,"Ġultim":2798,"Ġliter":2799,"Ġfire":2800,"ĠBen":2801,"ĠCan":2802,"cers":2803,"Ġemotion":2804,"Ġunique":2805,"king":2806,"ĠMost":2807,"Ġfeatures":2808,"ries":2809,"Ġ...":2810,"ĠCom":2811,"Ġanyway":2812,"ett":2813,"Ġperfectly":2814,"Ġproject":2815,"ĠWho":2816,"Ġdesign":2817,"Ġspace":2818,"Ġlaughs":2819,"lor":2820,"Ġsomehow":2821,"Ġmeets":2822,"ume":2823,"Ġkeeps":2824,"ĠAN":2825,"ills":2826,"iliar":2827,"Ġnature":2828,"angu":2829,"ius":2830,"agon":2831,"Ġprison":2832,"Ġexpress":2833,"Ġvillain":2834,"Ġquickly":2835,"ived":2836,"anks":2837,"isf":2838,"reed":2839,"erv":2840,"Ġmeant":2841,"Ġstereot":2842,"Ġcheesy":2843,"Ġgirlfriend":2844,"Ġcover":2845,"Ġmill":2846,"Ġlos":2847,"Ġheav":2848,"ĠPar":2849,"ĠSm":2850,"ĠFilm":2851,"well":2852,"Ġlaw":2853,"bor":2854,"Ġoper":2855,"Ġdam":2856,"ĠQu":2857,"ĠMart":2858,"Ġadvent":2859,"ai":2860,"Ġforward":2861,"Ġconcept":2862,"por":2863,"urd":2864,"Ġreading":2865,"Ġworked":2866,"Ġer":2867,"Ġrealize":2868,"hood":2869,"Ġmad":2870,"this":2871,"Ġment":2872,"chie":2873,"Ġamount":2874,"Ġmystery":2875,"All":2876,"acy":2877,"Ġimagine":2878,"action":2879,"Ġearlier":2880,"RE":2881,"Ġunlike":2882,"acing":2883,"Ġdisturb":2884,"Ġprofess":2885,"For":2886,"eless":2887,"ĠFrom":2888,"ned":2889,"ĠWood":2890,"Ġromance":2891,"opp":2892,"Ġyes":2893,"Ġmasterpiece":2894,"ĠDisney":2895,"Ġconne":2896,"Ġbadly":2897,"ises":2898,"ĠTw":2899,"Ġcry":2900,"Ġagree":2901,"Ġgeneral":2902,"Ġpurp":2903,"ĠJapanese":2904,"ĠIts":2905,"Ġgay":2906,"Ġ70":2907,"Ġpopular":2908,"?)":2909,"iny":2910,"arry":2911,"Ġrepe":2912,"host":2913,"Ġwhom":2914,"ze":2915,"Ġcap":2916,"Ġthird":2917,"ĠEx":2918,"Ġenc":2919,"Ġscreenplay":2920,"ĠAf":2921,"Ġhistor":2922,"allow":2923,"Ġpossibly":2924,"Ġband":2925,"Ġvarious":2926,"Ġextra":2927,"ged":2928,"Ġbrings":2929,"Ġrecogn":2930,"Ġolder":2931,"Ġtotal":2932,"kn":2933,"ĠIMDb":2934,"Ġadmit":2935,"Ġfasc":2936,"Ġpowerful":2937,"ring":2938,"Ġtowards":2939,"aked":2940,"Ġincredibly":2941,"Ġtrad":2942,"cher":2943,"ana":2944,"ĠThese":2945,"Ġjoke":2946,"Ġbare":2947,"Ġdance":2948,"Ġwriters":2949,"Ġ30":2950,"oman":2951,"Ġinnoc":2952,"\")":2953,"ĠYes":2954,"stead":2955,"look":2956,"Ġ195":2957,"ask":2958,"Ġconv":2959,"Ġacted":2960,"ĠScott":2961,"Ġcollect":2962,"Ġbattle":2963,"Ġreasons":2964,"arring":2965,"cessary":2966,"unny":2967,"Ġcolle":2968,"Ġcartoon":2969,"Ġhom":2970,"ĠChe":2971,"Ġrich":2972,"Ġdevelopment":2973,"olf":2974,"itty":2975,"Ġfails":2976,"rif":2977,"Ġinside":2978,"Ġoccas":2979,"Ġeventually":2980,"Ġspent":2981,"belie":2982,"erm":2983,"Ġnor":2984,"Ġportrayed":2985,"Ġplease":2986,"Ġfairly":2987,"ĠLike":2988,"Ġdirecting":2989,"Ġdeserves":2990,"Ġsleep":2991,"Ġcreepy":2992,"Ġjour":2993,"Ġattract":2994,"ĠGood":2995,"Ġflat":2996,"ĠBy":2997,"Ġcirc":2998,"Ġinvest":2999,"par":3000,"with":3001,"ases":3002,"ĠPat":3003,"Ġimm":3004,"ford":3005,"OO":3006,"Ġvamp":3007,"Ġscient":3008,"Ġdramatic":3009,"Ġ90":3010,"Ġwasted":3011,"ĠMe":3012,"itted":3013,"Ġdirectors":3014,"Ġcatch":3015,"udd":3016,"Ġsounds":3017,"ĠTra":3018,"Ġbeauty":3019,"ĠLu":3020,"Ġmanages":3021,"Ġattempts":3022,"How":3023,"ivid":3024,"ips":3025,"bl":3026,"roy":3027,"Ġideas":3028,"Ġplain":3029,"Ġcond":3030,"ĠNight":3031,"Ġleading":3032,"vered":3033,"ague":3034,"Ġexpecting":3035,"Ġcreate":3036,"ĠBlack":3037,"erry":3038,"Ġcommun":3039,"Ġspirit":3040,"Ġign":3041,"Ġbed":3042,"men":3043,"Ġphys":3044,"Ġlangu":3045,"Ġident":3046,"ĠSu":3047,"inary":3048,"Ġpolitical":3049,"Ġplenty":3050,"udity":3051,"yl":3052,"Ġboys":3053,"ĠEuro":3054,"medi":3055,"ero":3056,"Ġmembers":3057,"Ġaut":3058,"Ġfamiliar":3059,"Ġ:":3060,"Ġsorry":3061,"Ġcaught":3062,"ĠBra":3063,"Ġended":3064,"Ġindeed":3065,"mist":3066,"Ġ`":3067,"Ġexplain":3068,"Ġrecord":3069,"resh":3070,"boy":3071,"Ġmissing":3072,"arl":3073,"Ġrevol":3074,"ĠRuss":3075,"Ġsymp":3076,"Ġstat":3077,"andy":3078,"acher":3079,"arrass":3080,"ades":3081,"ĠFirst":3082,"Ġfighting":3083,"ĠAle":3084,"Ġaccident":3085,"Ġaff":3086,"Ġoffic":3087,"Ġoutside":3088,"gest":3089,"Ġess":3090,"Ġmatch":3091,"oles":3092,"mas":3093,"rel":3094,"onic":3095,"ĠJoe":3096,"een":3097,"Ġachie":3098,"Ġwater":3099,"Ġlaughing":3100,"Ġpotential":3101,"izing":3102,"Ġsweet":3103,"Ġrob":3104,"Ġnote":3105,"lu":3106,"Ġhair":3107,"Ġcommon":3108,"On":3109,"ĠWorld":3110,"irl":3111,"Ġrecently":3112,"Ġest":3113,"Ġjud":3114,"Ġremake":3115,"val":3116,"hel":3117,"Ġporn":3118,"Ġtalented":3119,"Ġfilmmakers":3120,"Ġ!":3121,"Ġrequ":3122,"zz":3123,"Ġembarrass":3124,"Ġble":3125,"Ġclaim":3126,"Ġflash":3127,"Ġtravel":3128,"Ġpace":3129,"Ġdepth":3130,"Ġcreated":3131,"Ġ(\"":3132,"cked":3133,"ashing":3134,"Ġtelling":3135,"Ġescape":3136,"ites":3137,"Ġsocial":3138,"Ġfunn":3139,"ĠMat":3140,"Ġimpro":3141,"ology":3142,"Ġera":3143,"Ġimmedi":3144,"Ġrelig":3145,"TH":3146,"iers":3147,"Ġidi":3148,"Ġintri":3149,"Ġbother":3150,"Ġbiz":3151,"iced":3152,"Ġansw":3153,"Ġbrain":3154,"ĠItalian":3155,"IS":3156,"Ġtrail":3157,"Ġfollowing":3158,"Ġstep":3159,"Ġcomplex":3160,"iously":3161,"Ġmissed":3162,"Ġwestern":3163,"Ġwhatever":3164,"emy":3165,"Ġcrazy":3166,"Ġnudity":3167,"ieces":3168,"Ġbrief":3169,"Ġmurd":3170,"ha":3171,"vil":3172,"Ġcute":3173,"ĠOther":3174,"while":3175,"Ġaf":3176,"venge":3177,"Ġamb":3178,"Ġhardly":3179,"Ġhy":3180,"Ġformer":3181,"uine":3182,"asher":3183,"umes":3184,"Ġmedi":3185,"Ġwaiting":3186,"ĠBill":3187,"Ġcredit":3188,"Ġanti":3189,"rect":3190,"uter":3191,"sters":3192,"000":3193,"Ġmentioned":3194,"ĠVan":3195,"Ġslightly":3196,"Ġstereotyp":3197,"Ġlady":3198,"Ġ15":3199,"imp":3200,"Ġdecides":3201,"Ġfurther":3202,"Ġrece":3203,"Ġuses":3204,"ele":3205,"Ġsees":3206,"ibility":3207,"Ġmel":3208,"Ġforgot":3209,"cent":3210,"Ġconvincing":3211,"Ġmod":3212,"rage":3213,"Ġclos":3214,"berg":3215,"Ġdesper":3216,"Ġstore":3217,"Ġdraw":3218,"Ġcasting":3219,"Ġsubtle":3220,"ging":3221,"vern":3222,"Ġdoll":3223,"ĠInstead":3224,"Ġmid":3225,"ĠPro":3226,"Ġcontrol":3227,"ĠDes":3228,"Ġentirely":3229,"Ġmass":3230,"Ġfollows":3231,"ossible":3232,"ishing":3233,"Ġportrayal":3234,"Ġdelight":3235,"Ġappreciate":3236,"itation":3237,"Ġfit":3238,"Ġaccent":3239,"Ġvalue":3240,"Ġpointless":3241,"Ġexplo":3242,"ĠEurope":3243,"Ġdied":3244,"Ġdoctor":3245,"su":3246,"Ġtension":3247,"gram":3248,"Ġmarried":3249,"ĠTim":3250,"Ġrad":3251,"PO":3252,"ĠPark":3253,"Don":3254,"lict":3255,"lying":3256,"Ġwrote":3257,"Ġine":3258,"alth":3259,"ĠGreat":3260,"inating":3261,"Ġrate":3262,"ashion":3263,"Ġcolor":3264,"VER":3265,"Ġsum":3266,"Ġgenuine":3267,"iff":3268,"Ġunbelie":3269,"Ġremark":3270,"uted":3271,"cast":3272,"ĠMad":3273,"Ġstick":3274,"ĠAct":3275,"ĠHere":3276,"ĠWatch":3277,"Ġscream":3278,"Ġtort":3279,"uster":3280,"Ġ193":3281,"annel":3282,"come":3283,"inger":3284,"Ġchoice":3285,"Ġfantasy":3286,"ĠJe":3287,"ED":3288,"Ġmoves":3289,"Ġproduced":3290,"Ġyounger":3291,"iving":3292,"iller":3293,"Ġdepict":3294,"Ġsolid":3295,"fi":3296,"elly":3297,"Ġ196":3298,"oes":3299,"ipp":3300,"Ġsituations":3301,"ilt":3302,"Ġimages":3303,"idden":3304,"Ġcritic":3305,"sequ":3306,"ĠStar":3307,"Ġbiggest":3308,"con":3309,"str":3310,"Ġfol":3311,"Ġgarb":3312,"ĠHor":3313,"Ġlonger":3314,"Ġsuccessful":3315,"Ġsatisf":3316,"Ġlanguage":3317,"lusion":3318,"Ġincredible":3319,"Ġsoul":3320,"Ġcontr":3321,"no":3322,"Ġwall":3323,"ĠSw":3324,"Ġground":3325,"Ġexciting":3326,"Ġintelligent":3327,"Ġdecide":3328,"standing":3329,"Ġcru":3330,"Ġdanger":3331,"ened":3332,"Ġdrive":3333,"irty":3334,"Ġamusing":3335,"Ġcompany":3336,"Ġrap":3337,"Ġwild":3338,"aging":3339,"Ġhumour":3340,"Ġweek":3341,"Ġpurpose":3342,"Ġearth":3343,"Ġparty":3344,"ĠJane":3345,"ateur":3346,"OW":3347,"ĠEn":3348,"Ġcompet":3349,"ille":3350,"Ġunfortunately":3351,"Ġeffective":3352,"Ġregard":3353,"ding":3354,"oph":3355,"Ġrecent":3356,"arily":3357,"ified":3358,"Ġspend":3359,"Ġtrain":3360,"ribly":3361,"Ġmach":3362,"room":3363,"Ġbrut":3364,"Ġbizarre":3365,"OM":3366,"ette":3367,"Ġtrouble":3368,"Ġtrack":3369,"Ġlikes":3370,"known":3371,"gend":3372,"aus":3373,"ki":3374,"Ġrefe":3375,"ization":3376,"wart":3377,"Ġfocus":3378,"Ġquestions":3379,"appe":3380,"Ġbreat":3381,"Ġinform":3382,"ĠII":3383,"Ġotherwise":3384,"ĠSer":3385,"Ġweren":3386,"Ġglad":3387,"Ġauth":3388,"itary":3389,"Ġmood":3390,"Ġunless":3391,"Ġdrug":3392,"Ġsuspect":3393,"Ġproducers":3394,"Ġterror":3395,"Ġchanged":3396,"Ġkills":3397,"Ġvalues":3398,"Well":3399,"Ġsci":3400,"ĠGl":3401,"Ġprogram":3402,"Ġconcern":3403,"Ġviolent":3404,"ĠIr":3405,"Ġjump":3406,"Ġfilled":3407,"Ġcollege":3408,"Ġfake":3409,"alt":3410,"Ġluck":3411,"Ġimpressive":3412,"Ġcontinu":3413,"anda":3414,"Ġshowed":3415,"Ġcompe":3416,"Not":3417,"ĠLou":3418,"Ġcross":3419,"Ġrepres":3420,"Ġinvolving":3421,"Ġpathetic":3422,"ĠDead":3423,"ĠChristmas":3424,"Ġ50":3425,"Ġgarbage":3426,"idered":3427,"mistry":3428,"Ġmer":3429,"ĠMac":3430,"movie":3431,"ĠMovie":3432,"Ġunin":3433,"Ġopportun":3434,"iche":3435,"Ġslasher":3436,"even":3437,"ares":3438,"ĠCra":3439,"Ġcompared":3440,"ĠHitch":3441,"ĠFl":3442,"ĠGold":3443,"Ġspot":3444,"iding":3445,"Ġsuc":3446,"LE":3447,"Ġamateur":3448,"Ġfailed":3449,"ength":3450,"BC":3451,"ĠBoy":3452,"ĠOF":3453,"Ġstreet":3454,"Ġaffect":3455,"Ġfear":3456,"Ġdisg":3457,"ective":3458,"ottom":3459,"Ġculture":3460,"Ġtaste":3461,"Ġbarely":3462,"ĠRock":3463,"Ġsuddenly":3464,"Ġinterview":3465,"Ġrede":3466,"min":3467,"Ġtest":3468,"Ġbought":3469,"ĠLove":3470,"Ġawesome":3471,"ĠAfric":3472,"Ġbeat":3473,"Ġsinging":3474,"Ġchemistry":3475,"Ġproduct":3476,"Ġdancing":3477,"Ġsqu":3478,"Ġspect":3479,"Ġball":3480,"ĠBig":3481,"Ġability":3482,"aper":3483,"Ġ194":3484,"Ġtrash":3485,"ĠFred":3486,"Ġavail":3487,"Ġcause":3488,"ener":3489,"Ġaccur":3490,"Ġconsidered":3491,"round":3492,"Ġkick":3493,"Ġcarry":3494,"Ġdisturbing":3495,"Ġsympat":3496,"Ġsearch":3497,"Ġmanner":3498,"ondon":3499,"Ġfat":3500,"Ġstudio":3501,"Ġbull":3502,"Ġstate":3503,"Ġexception":3504,"cted":3505,"iles":3506,"une":3507,"Ġroll":3508,"ales":3509,"Ġimmediately":3510,"ĠFran":3511,"Ġreveal":3512,"inn":3513,"Ġghost":3514,"ĠStre":3515,"Ġcontri":3516,"Ġisland":3517,"Ġrepl":3518,"Ġbooks":3519,"Ġdeliver":3520,"aven":3521,"Ġbomb":3522,"Ġimpossible":3523,"Ġcrim":3524,"***":3525,"Ġsucceed":3526,"fort":3527,"Ġthinks":3528,"Ġshooting":3529,"Ġhang":3530,"Ġaudiences":3531,"aff":3532,"gress":3533,"ĠRed":3534,"idence":3535,"Ġrand":3536,"war":3537,"ĠRay":3538,"Ġroad":3539,"Ġtough":3540,"Ġtrip":3541,"rupt":3542,"Ġimpression":3543,"reg":3544,"Ġcold":3545,"Ġgovern":3546,"cock":3547,"Ġsuit":3548,"Ġleaving":3549,"Ġoffice":3550,"ĠIndian":3551,"After":3552,"Ġgod":3553,"Ġminor":3554,"Ġbasic":3555,"Ġgag":3556,"ILER":3557,"iver":3558,"reaking":3559,"Ġappeal":3560,"Ġruns":3561,"Ġissues":3562,"Ġfavour":3563,"Ġpack":3564,"Ġpun":3565,"Ġpract":3566,"rian":3567,"ĠCity":3568,"ĠDra":3569,"Ġ100":3570,"Ġdoor":3571,"izes":3572,"ensive":3573,"Ġconsidering":3574,"Ġlau":3575,"Ġgenius":3576,"POILER":3577,"rid":3578,"Ġsitting":3579,"iring":3580,"ĠHouse":3581,"ecause":3582,"Ġredeem":3583,"night":3584,"Ġfashion":3585,"ify":3586,"ĠMur":3587,"Ġlikely":3588,"Ġship":3589,"ĠLondon":3590,"Ġunex":3591,"rences":3592,"Ġinvestig":3593,"amb":3594,"Ġadded":3595,"Ġconclusion":3596,"that":3597,"Ġpers":3598,"ĠBer":3599,"Ġtwists":3600,"lessly":3601,"ĠAlex":3602,"First":3603,"Ġloud":3604,"ĠMel":3605,"Ġinsult":3606,"Ġrandom":3607,"ĠBur":3608,"Ġclot":3609,"Ġnatural":3610,"irth":3611,"Ġstunning":3612,"Ġnotice":3613,"Ġappearance":3614,"making":3615,"Ġbaby":3616,"ste":3617,"oop":3618,"ĠCor":3619,"Ġdef":3620,"We":3621,"Ġoccur":3622,"you":3623,"owers":3624,"aining":3625,"icated":3626,"Ġsmart":3627,"kin":3628,"aine":3629,"Ġalive":3630,"AS":3631,"cle":3632,"Ġterms":3633,"Ġauthor":3634,"Ġgem":3635,"ands":3636,"Ġsav":3637,"Ġlab":3638,"Ġscenery":3639,"Ġrespons":3640,"Ġgrap":3641,"opher":3642,"Ġprep":3643,"ĠMary":3644,"ĠAngel":3645,"To":3646,"Ġpresence":3647,"Ġindust":3648,"Ġadventure":3649,"Ġneither":3650,"Ġfresh":3651,"ĠWay":3652,"Ġcomputer":3653,"Ġfaith":3654,"vert":3655,"Ġstandard":3656,"Ġdestroy":3657,"Ġnormal":3658,"ID":3659,"ĠBru":3660,"ĠAg":3661,"ĠST":3662,"ĠEarth":3663,"Ġcentury":3664,"Ġmanaged":3665,"Ġrevenge":3666,"Ġcinematic":3667,"Ġsomewhere":3668,"Ġavailable":3669,"anna":3670,"ological":3671,"Ġheavy":3672,"icide":3673,"ĠEm":3674,"\".<":3675,"ena":3676,"ĠBob":3677,"Ġjourney":3678,"mes":3679,"riage":3680,"ths":3681,"Ġremains":3682,"Ġsoldiers":3683,"Ġobsess":3684,"Ġmult":3685,"ĠNor":3686,"Ġnowhere":3687,"Ġboyfriend":3688,"Ġapproach":3689,"Ġultimately":3690,"ĠBat":3691,"Ġneigh":3692,"ĠCharles":3693,"ĠLet":3694,"Ġrare":3695,"ictor":3696,"lo":3697,"itions":3698,"Ġuns":3699,"Ġaffair":3700,"stem":3701,"Ġforce":3702,"Ġflashback":3703,"ĠStan":3704,"Ġsuppose":3705,"Ġsexy":3706,"Ġpassion":3707,"Ġconstantly":3708,"ĠPerhaps":3709,"oned":3710,"Ġdro":3711,"Ġconflict":3712,"ĠAustral":3713,"Be":3714,"Ġokay":3715,"Ġthreat":3716,"Ġarri":3717,"Ġthrown":3718,"Ġmagic":3719,"Ġzombie":3720,"Ġclimax":3721,"Ġintrigu":3722,"Ġdescrib":3723,"Ġemotions":3724,"ropri":3725,"Ġchanges":3726,"iven":3727,"just":3728,"Ġjo":3729,"ĠJones":3730,"Ġphotography":3731,"Ġadaptation":3732,"face":3733,"riff":3734,"ĠBest":3735,"Ġnarrative":3736,"Ġdetails":3737,"esides":3738,"Ġnames":3739,"ivers":3740,"Ġstarring":3741,"ĠHol":3742,"Ġbeautifully":3743,"estival":3744,"Ġutterly":3745,"Ġliterally":3746,"ented":3747,"Ġcharming":3748,"ĠAnn":3749,"He":3750,"Ġdin":3751,"Ġoffer":3752,"ĠYe":3753,"Ġdemon":3754,"Ġwitness":3755,"ander":3756,"Ġast":3757,"itude":3758,"Ġplaces":3759,"played":3760,"Ġprotagon":3761,"Ġdig":3762,"Ġbehav":3763,"Ġterrific":3764,"vey":3765,"ĠHam":3766,"orts":3767,"ĠParis":3768,"Ġhistorical":3769,"Ġtone":3770,"Ġcuri":3771,"Ġanimated":3772,"Ġintended":3773,"Ġcommer":3774,"Ġindivid":3775,"Ġescap":3776,"Ġinnocent":3777,"arm":3778,"urch":3779,"Ġinflu":3780,"gl":3781,"uts":3782,"Ġlaughable":3783,"Ġstands":3784,"Ġtradition":3785,"oking":3786,"Ġcomedies":3787,"Ġcompar":3788,"lease":3789,"Ġdrink":3790,"Ġrecommended":3791,"Ġdisappointing":3792,"Ġsix":3793,"ĠSure":3794,"ĠBel":3795,"Ġscience":3796,"elling":3797,"Ġfeelings":3798,"board":3799,"ĠSmith":3800,"Ġhost":3801,"Ġpresented":3802,"oices":3803,"ability":3804,"OV":3805,"ĠHigh":3806,"unting":3807,"arsh":3808,"Ġfinish":3809,"Ġtouching":3810,"ressing":3811,"Ġaddition":3812,"Ġputs":3813,"ĠSci":3814,"awn":3815,"Ġthrow":3816,"Ġpainful":3817,"Ġcostumes":3818,"Ġfilming":3819,"Ġchall":3820,"Ġgenerally":3821,"Ġsurprisingly":3822,"ospital":3823,"Ġunbelievable":3824,"That":3825,"field":3826,"part":3827,"Ġsurround":3828,"Ġleg":3829,"Ġspec":3830,"Jo":3831,"Ġabsurd":3832,"Ġpieces":3833,"ĠAnt":3834,"ĠMiss":3835,"Ġgold":3836,"Ġthemes":3837,"IT":3838,"Ġplus":3839,"Ġcharm":3840,"Ġmilitary":3841,"Ġfool":3842,"Ġloose":3843,"ica":3844,"Ġbuilding":3845,"Ġgovernment":3846,"Ġur":3847,"ĠCal":3848,"Ġsoft":3849,"Ġteacher":3850,"Ġaspects":3851,"ĠCG":3852,"Ġloves":3853,"Ġmedioc":3854,"ivil":3855,"Ġobject":3856,"Ġslowly":3857,"Ġsystem":3858,"ĠChristian":3859,"AD":3860,"Ġfully":3861,"Ġoffe":3862,"ĠJeff":3863,"Ġmakers":3864,"Ġintense":3865,"Ġlovely":3866,"Ġdisappointment":3867,"Ġhoping":3868,"ghed":3869,"pro":3870,"Some":3871,"ĠSec":3872,"Ġmistake":3873,"CH":3874,"Ġtired":3875,"ĠStill":3876,"Ġindividual":3877,"ta":3878,"Sh":3879,"down":3880,"Ġsto":3881,"Ġ18":3882,"ploy":3883,"oh":3884,"ode":3885,"Ġexpectations":3886,"house":3887,"Ġdate":3888,"illing":3889,"Ġburn":3890,"Ġacts":3891,"anted":3892,"Ġalien":3893,"ĠHitchcock":3894,"ĠBro":3895,"ples":3896,"Ġartist":3897,"Ġ60":3898,"oved":3899,"Ġspl":3900,"Ġlength":3901,"oughly":3902,"Ġsilent":3903,"Ġmillion":3904,"budget":3905,"Ġelement":3906,"ĠCharlie":3907,"now":3908,"Ġboss":3909,"ĠDirector":3910,"Ġener":3911,"Ġexcuse":3912,"Ġopportunity":3913,"entially":3914,"Ġdefe":3915,"Ġdiscuss":3916,"Ġride":3917,"Ġdiscover":3918,"Ġcommercial":3919,"ĠBecause":3920,"Ġmoral":3921,"Ġmagn":3922,"Ġequally":3923,"Ġdad":3924,"ĠHen":3925,"Ġkey":3926,"Ġcurrent":3927,"gue":3928,"ached":3929,"ĠHarry":3930,"?!":3931,"Ġdim":3932,"Ġstudent":3933,"Ġmysterious":3934,"Ġfascinating":3935,"IG":3936,"Ġinit":3937,"Ġoutstanding":3938,"under":3939,"ision":3940,"Ġlif":3941,"Ġproper":3942,"istent":3943,"Ġsubst":3944,"Ġintern":3945,"Ġ40":3946,"ribe":3947,"aint":3948,"ĠRy":3949,"Ġcontains":3950,"ĠSteve":3951,"ooks":3952,"Ġknowing":3953,"Ġnumb":3954,"Ġdrunk":3955,"At":3956,"mon":3957,"win":3958,"ĠCr":3959,"Ġimpl":3960,"Ġinclude":3961,"ĠX":3962,"Ġord":3963,"Ġqual":3964,"Ġcontent":3965,"ĠOnly":3966,"heart":3967,"Ġdiv":3968,".....":3969,"Ġlegend":3970,"anch":3971,"ĠDark":3972,"asty":3973,"uit":3974,"ĠMark":3975,"akespe":3976,"Ġdesert":3977,"ĠAnother":3978,"ledge":3979,"Ġhappening":3980,"ĠAdam":3981,"Ġlaughed":3982,"Ġsight":3983,"onna":3984,"ĠWW":3985,"Ġpictures":3986,"mark":3987,"ĠSouth":3988,"Ġserial":3989,"Ġstudents":3990,"Ġmouth":3991,"ĠTony":3992,"sey":3993,"Ġwalking":3994,"ĠBruce":3995,"ĠWest":3996,"ini":3997,"Ġdies":3998,"Ġprocess":3999,"appy":4000,"Ġlived":4001,"ĠWhere":4002,"ĠDu":4003,"mbol":4004,"Un":4005,"Ġconfusing":4006,"Ġmelod":4007,"Now":4008,"lyn":4009,"Ġcritics":4010,"Ġirrit":4011,"ĠStr":4012,"Ġflicks":4013,"IE":4014,"Ġdisaster":4015,"Oh":4016,"Ġcreative":4017,"ĠStewart":4018,"Ġdisgust":4019,"hor":4020,"ront":4021,"ural":4022,"Ġimage":4023,"Ġdifference":4024,"pret":4025,"ĠTar":4026,"ĠPol":4027,"Ġrace":4028,"Ġtrag":4029,"Ġseg":4030,"Ġphotograp":4031,"Ġcompelling":4032,"Ġclean":4033,"Ġbreath":4034,"Ġdread":4035,"ĠVery":4036,"Ġlacks":4037,"Ġrelationships":4038,"ĠDou":4039,"ĠFe":4040,"Ġserv":4041,"dered":4042,"inct":4043,"Ġproducer":4044,"Ġlocation":4045,"Ġimpressed":4046,"Ġoppos":4047,"Ġfolks":4048,"ĠChris":4049,"Ġedge":4050,"Ġdrawn":4051,"vir":4052,"Ġfaces":4053,"asing":4054,"Ġlikable":4055,"Ġmarriage":4056,"table":4057,"inally":4058,"Ġvirt":4059,"ĠJew":4060,"ĠYet":4061,"ham":4062,"Ġcorrect":4063,"Ġcell":4064,"Ġshare":4065,"ift":4066,"ĠVictor":4067,"Ġhelps":4068,"Overall":4069,"gly":4070,"ĠJean":4071,"exic":4072,"Ġconfused":4073,"Ġrip":4074,"Ġadds":4075,"Ġdeveloped":4076,"Ġdrugs":4077,"uous":4078,"rend":4079,"Ġappeared":4080,"ĠPeople":4081,"Ġinformation":4082,"Bl":4083,"uel":4084,"Ġthor":4085,"writer":4086,"good":4087,"Ġhospital":4088,"Ġpil":4089,"AL":4090,"ss":4091,"what":4092,"Ġgorge":4093,"ĠHard":4094,"gged":4095,"erous":4096,"aries":4097,"ĠBar":4098,"Ġgiant":4099,"Ġforever":4100,"pendent":4101,"Ġspectac":4102,"thur":4103,"tend":4104,"Ġremote":4105,"Ġprim":4106,"Ġlighting":4107,"Ġdelivers":4108,"ĠMartin":4109,"ĠSand":4110,"ency":4111,"ĠKelly":4112,"Ġmir":4113,"Ġvictims":4114,"ka":4115,"see":4116,"Ġmotion":4117,"Ġfault":4118,"Ġflaws":4119,"Ġseemingly":4120,"omething":4121,"Ġsymbol":4122,"omas":4123,"ĠSee":4124,"ppy":4125,"text":4126,"ĠTwo":4127,"Ġpaid":4128,"Ġchase":4129,"ĠFox":4130,"Ġoffers":4131,"While":4132,"Ġvampire":4133,"Ġanswer":4134,"Ġnews":4135,"Ġwondering":4136,"ken":4137,"ops":4138,"ĠRam":4139,"ĠGar":4140,"uddy":4141,"ĠShakespe":4142,"Ġdreams":4143,"Ġnaked":4144,"Ġcrow":4145,"Ġanymore":4146,"Ġmulti":4147,"oom":4148,"Ġjoy":4149,"Ġmainly":4150,"ĠNothing":4151,"ĠAND":4152,"Ġtrailer":4153,"anced":4154,"ĠCo":4155,"Ġrout":4156,"ĠEast":4157,"Ġresc":4158,"Ġhasn":4159,"aches":4160,"Ġallowed":4161,"ita":4162,"Ġfright":4163,"ĠOverall":4164,"Ġprovides":4165,"Ġindustry":4166,"Any":4167,"Ġholes":4168,"ĠIS":4169,"ustr":4170,"Ġfinding":4171,"azz":4172,"Americ":4173,"icip":4174,"ĠBad":4175,"osh":4176,"ĠDay":4177,"ushed":4178,"Ġlover":4179,"Ġmerely":4180,"Ġadults":4181,"Ġbi":4182,"ilities":4183,"ĠAb":4184,"pected":4185,"Ġfunniest":4186,"life":4187,"Ġhig":4188,"Ġnobody":4189,"Ġwilling":4190,"Ġdisappe":4191,"ĠRussian":4192,"Ġmelodram":4193,"ĠMexic":4194,"Ġconvers":4195,"Ġforgotten":4196,"Ġdubb":4197,"verse":4198,"raid":4199,"ĠNever":4200,"Ġthank":4201,"Ġhighlight":4202,"ique":4203,"Ġfiction":4204,"Ġnons":4205,"ĠTre":4206,"Ġrented":4207,"Ġmarket":4208,"Ġeverybody":4209,"Ġimagination":4210,"Ġgorgeous":4211,"cra":4212,"Ġstuck":4213,"abb":4214,"Ġahead":4215,"Ġonto":4216,"Ġimpact":4217,"Ġexplan":4218,"Ġstandards":4219,"Ġwide":4220,"lled":4221,"ĠPart":4222,"----":4223,"Ġfollowed":4224,"Ġbecoming":4225,"Ġreminded":4226,"Ġattractive":4227,"Ġ****":4228,"Ġmart":4229,"Ġpen":4230,"Ġ12":4231,"soever":4232,"itz":4233,"orter":4234,"Ġeight":4235,"Ġunus":4236,"Ġzombies":4237,"elebr":4238,"Ġmat":4239,"Ġcontem":4240,"Ġfalling":4241,"Ġcollection":4242,"ĠJon":4243,"Ġfellow":4244,"ĠCanad":4245,"Ġmediocre":4246,"Ġstation":4247,"rog":4248,"pper":4249,"Ġround":4250,"Ġclub":4251,"ĠThough":4252,"Ġhonestly":4253,"De":4254,"Ġoh":4255,"Ġlad":4256,"ĠBond":4257,"illed":4258,"aud":4259,"Ġrac":4260,"Ġready":4261,"Ġboard":4262,"Ġoccasion":4263,"lock":4264,"itor":4265,"Ġfort":4266,"Ġpersonality":4267,"Ġdouble":4268,"Ġlatter":4269,"stein":4270,".,":4271,"IC":4272,"Ġeat":4273,"ĠMore":4274,"ĠGo":4275,"abl":4276,"AY":4277,"anic":4278,"ĠBet":4279,"Ġarea":4280,"Ġwhatsoever":4281,"entional":4282,"Ġdetective":4283,"Ġham":4284,"asure":4285,"Ġactions":4286,"Ġunne":4287,"ĠAmericans":4288,"Ġpicked":4289,"Ġaside":4290,"Ġsuicide":4291,"Ġprin":4292,"Ġcops":4293,"Ġanimals":4294,"ech":4295,"she":4296,"Ġaim":4297,"ĠWalk":4298,"ĠRog":4299,"Ġkidn":4300,"Ġhelped":4301,"Ġled":4302,"Ġgri":4303,"ĠSpe":4304,"ĠJackson":4305,"AC":4306,"oted":4307,"Ġtwice":4308,"Ġstreng":4309,"ishes":4310,"Ġunderst":4311,"Ġtragic":4312,"ĠShow":4313,"Ġphone":4314,"ĠSteven":4315,"Ġhide":4316,"Ġreach":4317,"aded":4318,"Ġblind":4319,"iday":4320,"Ġunreal":4321,"Ġputting":4322,"Ġmember":4323,"ĠPhil":4324,"Ġden":4325,"No":4326,"With":4327,"Ġbase":4328,"Ġpair":4329,"Ġ/>-":4330,"ĠWil":4331,"Ġworthy":4332,"Ġpossess":4333,"Ġscientist":4334,"Ġachieve":4335,"hol":4336,"ĠBilly":4337,"Ġproves":4338,"ĠNaz":4339,"Ġmoved":4340,"Ġshouldn":4341,"Ġencoun":4342,"aton":4343,"odies":4344,"Ġthoroughly":4345,"eal":4346,"rough":4347,"Ġgrow":4348,"Ġchildhood":4349,"ffe":4350,"father":4351,"gar":4352,"ĠDick":4353,"ĠRobin":4354,"Ġtragedy":4355,"Ġcrowd":4356,"Ġwise":4357,"Ġbottom":4358,"Ġjustice":4359,"Ġprofessional":4360,"ios":4361,"ium":4362,"phen":4363,"Ġsumm":4364,"Ġfriendship":4365,"Ġactresses":4366,"ĠMs":4367,"ĠFord":4368,"Ġquiet":4369,"azy":4370,"Ġseconds":4371,"Ġbene":4372,"Ġweap":4373,"ules":4374,"ĠYoung":4375,"ĠChristopher":4376,"ĠShakespeare":4377,".'":4378,"LY":4379,"herent":4380,"Ġcelebr":4381,"Ġhook":4382,"Ġplane":4383,"Ġrated":4384,"ĠON":4385,"ĠCarl":4386,"Ġformula":4387,"eper":4388,"film":4389,"Ġpra":4390,"Ġbegan":4391,"ĠBoth":4392,"Ġunw":4393,"ĠEr":4394,"ĠWestern":4395,"inese":4396,"Ġdrag":4397,"ĠMcC":4398,"Ġasked":4399,"TV":4400,"requ":4401,"illa":4402,"Ġnoir":4403,"Ġturning":4404,"Ġcontinue":4405,"ĠGreen":4406,"Ġslap":4407,"Ġcommentary":4408,"Ġprovide":4409,"Ġsour":4410,"oses":4411,"Ġshocking":4412,"Ġnasty":4413,"Ġlose":4414,"Ġmurders":4415,"mar":4416,"Ġwearing":4417,"Ġsuperior":4418,"Ġdescribe":4419,"Ġchannel":4420,"ĠLyn":4421,"Ġsupposedly":4422,"mi":4423,"agger":4424,"arded":4425,"arp":4426,"ifer":4427,"Ġtrust":4428,"Ġrealized":4429,"Ġbits":4430,"Ġangry":4431,"Ġopera":4432,"Ġafraid":4433,"port":4434,"oring":4435,"ĠMus":4436,"Ġknock":4437,"ĠStory":4438,"Ġcentral":4439,"Ġwooden":4440,"ĠSuper":4441,"Ġbright":4442,"ament":4443,"Ġphysical":4444,"Ġclothes":4445,"xual":4446,"anish":4447,"Ġheld":4448,"oore":4449,"Ġbroad":4450,")<":4451,"ĠSl":4452,"Ġdepart":4453,"Ġapartment":4454,"kes":4455,"year":4456,"oos":4457,"agers":4458,"Ġrepeated":4459,"ĠCGI":4460,"ĠLau":4461,"Ġinsight":4462,"Ġartistic":4463,"ĠMany":4464,"John":4465,"icious":4466,"ĠTe":4467,"Ġhorse":4468,"ovies":4469,"Ġwarm":4470,"Ġsurely":4471,"Ġintroduced":4472,"Ġstruggle":4473,"Ġtar":4474,"ators":4475,"ĠTheir":4476,"Ġmemory":4477,"Ġlisten":4478,"miss":4479,"Ġdying":4480,"Ġplanet":4481,"erk":4482,"alled":4483,"Ġagent":4484,"Ġwanting":4485,"Ġfavourite":4486,"Ġunexpected":4487,"Ġenergy":4488,"Ġsell":4489,"roc":4490,"ĠMag":4491,"Ġcompare":4492,"Ġredeeming":4493,"Ġthanks":4494,"Ġepic":4495,"Ġpleasure":4496,"aire":4497,"Ġnecessary":4498,"ĠVH":4499,"Ġperform":4500,"Ġaccom":4501,"olds":4502,"apped":4503,"ja":4504,"rors":4505,"Ġthin":4506,"ĠSar":4507,"Ġsadly":4508,"Ġinspired":4509,"Ġdamn":4510,"Ġlies":4511,"ĠDen":4512,"Ġemploy":4513,"ĠAnyway":4514,"Ġyouth":4515,"ĠBas":4516,"Ġtorture":4517,"Ġintriguing":4518,"zen":4519,"Ġcal":4520,"ano":4521,"Ġnumbers":4522,"gent":4523,"kward":4524,"otes":4525,"ading":4526,"Ġugly":4527,"ĠBo":4528,"Ġscare":4529,"ousy":4530,"Ġloving":4531,"Ġprefer":4532,"Ġblond":4533,"Ġcoun":4534,"ropriate":4535,"Ġthus":4536,"ĠCam":4537,"Ġ1950":4538,"Ġhat":4539,"Ġcreature":4540,"Ġdeserve":4541,"Ġresemb":4542,"Ġbrutal":4543,"Ġasks":4544,"Ġexplos":4545,"Ġrelative":4546,"Ġteenage":4547,"ĠRyan":4548,"Ġpath":4549,"Ġbrothers":4550,"ĠclichÃ©s":4551,"Ġaccurate":4552,"lla":4553,"ĠJr":4554,"ĠJes":4555,"Ġaware":4556,"Although":4557,"Ġbelong":4558,"Ġrelie":4559,"ĠGirl":4560,"Ġanywhere":4561,"ĠEverything":4562,"ĠAc":4563,"asts":4564,"Ġintelligence":4565,"aly":4566,"Ġsepar":4567,"Ġchick":4568,"Ġrape":4569,"Ġaccount":4570,"ek":4571,"ario":4572,"ĠToo":4573,"tered":4574,"Ġtears":4575,"Ġdeserved":4576,"Ġcomedic":4577,"Ġsoldier":4578,"ĠWilliams":4579,"iac":4580,"ancy":4581,"Ġder":4582,"entious":4583,"Ġrubb":4584,"Ġwatchable":4585,"ddie":4586,"Ġvision":4587,"Ġpriest":4588,"ĠBarb":4589,"ĠLittle":4590,"Ġtend":4591,"Ġholds":4592,"Ġdeeply":4593,"afe":4594,"Ġsurprising":4595,"Ġfilmmaker":4596,"Ġawkward":4597,"Ġpersonally":4598,"undred":4599,"Ġreligious":4600,"ras":4601,"Ġmount":4602,"Ġprogress":4603,"Ġunknown":4604,"Ġknowledge":4605,"ĠBatman":4606,"vate":4607,"Ġ?":4608,"ĠSy":4609,"Ġsucks":4610,"Ġdeb":4611,"iance":4612,"Ġborn":4613,"Ġ1970":4614,"uct":4615,"Ġfood":4616,"Ġ13":4617,"Ġlets":4618,"Ġincludes":4619,"Ġelect":4620,"Ġreact":4621,"Just":4622,"abr":4623,"ĠHel":4624,"ĠEv":4625,"SE":4626,"Ġloss":4627,"omen":4628,"ilst":4629,"Ġstock":4630,"ĠSad":4631,"ĠPal":4632,"ĠChinese":4633,"Ġunderstanding":4634,"Ġhotel":4635,"Ġtour":4636,"ĠIN":4637,"Ġblock":4638,"bered":4639,"Ġcraft":4640,"AM":4641,"leep":4642,"Ġsurreal":4643,"ville":4644,"stal":4645,"Ġwonderfully":4646,"ĠThomas":4647,"Ġexplanation":4648,"rick":4649,"Ġsin":4650,"ĠMen":4651,"ĠMoore":4652,"Ġsuck":4653,"Ġdeg":4654,"ĠJason":4655,"Ġempt":4656,"ĠHenry":4657,"Ġgames":4658,"ĠWal":4659,"Ġblame":4660,"ĠSpace":4661,"Ġmartial":4662,"Ġver":4663,"ording":4664,"UT":4665,"Ġted":4666,"Ġmut":4667,"Ġmine":4668,"Ġbal":4669,"Ġhint":4670,"ĠThing":4671,"ĠJud":4672,"Ġmagnific":4673,"Ġlay":4674,"cture":4675,"Ġnoticed":4676,"do":4677,"ugg":4678,"yr":4679,"Ġtur":4680,"Ġbank":4681,"pective":4682,"Ġreminds":4683,"ĠDespite":4684,"Ġradio":4685,"hero":4686,"Ġbirth":4687,"Ġthous":4688,"Ġpacing":4689,"Ġris":4690,"ĠHarris":4691,"ashed":4692,"ademy":4693,"aturally":4694,"Ġlimited":4695,"Ġremarkable":4696,"Ġgags":4697,"Ġtarget":4698,"especially":4699,"ateg":4700,"Ġunusual":4701,"Re":4702,"ĠJerry":4703,"teen":4704,"Ġissue":4705,"hand":4706,"Ġcow":4707,"Ġindependent":4708,"enge":4709,"ĠDam":4710,"Ġanybody":4711,"Ġcalls":4712,"Ġlocations":4713,"Ġmotiv":4714,"Ġsignific":4715,"American":4716,"irgin":4717,"uman":4718,"Ġspeaking":4719,"ET":4720,"aylor":4721,"ĠRus":4722,"Ġassist":4723,"Ġcaptured":4724,"Ġopposite":4725,"hered":4726,"ilos":4727,"Ġstink":4728,"ĠAv":4729,"Ġscared":4730,"Ġbland":4731,"Ġenth":4732,"Ġmemories":4733,"ĠVHS":4734,"Ġaccompl":4735,"Ġmild":4736,"iful":4737,"ivity":4738,"Ġreflect":4739,"Ġlearned":4740,"Ġreturns":4741,"atory":4742,"Ġhurt":4743,"adow":4744,"ĠLaw":4745,"Ġrarely":4746,"ĠBrother":4747,"uh":4748,"Ġhundred":4749,"ĠDid":4750,"plot":4751,"Ġbur":4752,"osen":4753,"Ġmanage":4754,"Ġtwenty":4755,"there":4756,"ĠAllen":4757,"bian":4758,"nie":4759,"soci":4760,"Ġbuff":4761,"Ġheads":4762,"ominated":4763,"Sc":4764,"Ġtem":4765,"Ġla":4766,"Ġleader":4767,"Ġmonths":4768,"Ġnicely":4769,"Ġprotect":4770,"Ġengaging":4771,"Ġdangerous":4772,"Ġunnecessary":4773,"Sp":4774,"Ġmob":4775,"Ġsty":4776,"Ġdebut":4777,"ĠRo":4778,"Ġbelief":4779,"ĠHoward":4780,"Ġsoap":4781,"Ġproceed":4782,"Ġinterpret":4783,"ĠKevin":4784,"Ġ1980":4785,"bad":4786,"âĢ":4787,"plic":4788,"ĠOnce":4789,"Ġresponsible":4790,"Ġfield":4791,"Ġhated":4792,"lle":4793,"ipul":4794,"Ġinsane":4795,"spe":4796,"ĠRoy":4797,"Ġran":4798,"Ġcreating":4799,"ĠStephen":4800,":<":4801,"Rob":4802,"Ġtight":4803,"reck":4804,"eman":4805,"ĠLife":4806,"Ġarmy":4807,"Ġregret":4808,"hern":4809,"urs":4810,"Ġmental":4811,"ĠSil":4812,"irk":4813,"ruction":4814,"Ġminim":4815,"Ġcommunity":4816,"Ġflying":4817,"ĠTex":4818,"Ġexplained":4819,"Ġvisit":4820,"ĠDanny":4821,"Ġtreated":4822,"Ġreferences":4823,"Ġneighbor":4824,"star":4825,"ĠSus":4826,"abor":4827,"Ġplots":4828,"ewis":4829,"200":4830,"esh":4831,"Ġremain":4832,"ĠBrown":4833,"Ġcomparison":4834,"stick":4835,"Ġplayer":4836,"Ġtechnical":4837,"ĠMike":4838,"Ġgrad":4839,"Ġincre":4840,"Ġfinished":4841,"Ġarts":4842,"Ġskin":4843,"Ġsubtit":4844,"Why":4845,"Ġsac":4846,"ĠAp":4847,"unter":4848,"cient":4849,"Ġefforts":4850,"Ġbehavior":4851,"cise":4852,"oons":4853,"stit":4854,"ĠWin":4855,"Ġblue":4856,"ĠAnne":4857,"Ġhumanity":4858,"Ġcontrast":4859,"Ġge":4860,"ĠSant":4861,"Ġframe":4862,"Ġfloor":4863,"Ġopt":4864,"Ġhits":4865,"ĠMaster":4866,"Ġplayers":4867,"Ġsmile":4868,"Ġtransl":4869,"Ġcivil":4870,"Ġaband":4871,"Ġhadn":4872,"ache":4873,"Ġdeterm":4874,"Ġlacking":4875,"Ġcard":4876,"terest":4877,"Ġboat":4878,"Ġna":4879,"ĠHall":4880,"ennifer":4881,"Ġrubbish":4882,"ĠTaylor":4883,"Ġthats":4884,"Ġgotten":4885,"Ġmurdered":4886,"Ġfights":4887,"Ġsummer":4888,"rous":4889,"Ġfreak":4890,"Ġboo":4891,"Ġhyp":4892,"entle":4893,"ĠLes":4894,"Ġinstance":4895,"Ġrepresent":4896,"don":4897,"gn":4898,"vy":4899,"vit":4900,"ooper":4901,"ĠHit":4902,"ĠKid":4903,"ĠWhite":4904,"Ġconstant":4905,"Ġforeign":4906,"Ġvehic":4907,"Ġsurvive":4908,"Ġmachine":4909,"OK":4910,"ication":4911,"osaur":4912,"ĠDO":4913,"ĠLind":4914,"Ġprove":4915,"icked":4916,"ĠJohnny":4917,"Ġwond":4918,"Ġpet":4919,"Ġstret":4920,"They":4921,"Ġlovers":4922,"Ġrecall":4923,".\"<":4924,"Ġuncon":4925,"ser":4926,"Ġhidden":4927,"ĠApp":4928,"ĠSin":4929,"Ġtheatre":4930,"Ġcircum":4931,"However":4932,"Ġdu":4933,"ĠHell":4934,"pless":4935,"ensional":4936,"Ġbigger":4937,"Ġcapture":4938,"ls":4939,"natural":4940,"urse":4941,"Ġgrat":4942,"tes":4943,"Ġdesp":4944,"Ġhumans":4945,"Ġincluded":4946,"Ġcriminal":4947,"rem":4948,"ogy":4949,"aren":4950,"ĠEngland":4951,"Ġdriving":4952,"Ġprotagonist":4953,"rays":4954,"Ġcars":4955,"Ġdress":4956,"Ġnet":4957,"aybe":4958,"ember":4959,"Ġjunk":4960,"ĠPres":4961,"Ġexperien":4962,"ĠDavis":4963,"etic":4964,"ĠREA":4965,"Ġaward":4966,"Ġmixed":4967,"Ġner":4968,"Ġdeals":4969,"Ġcontext":4970,"they":4971,"ĠJoan":4972,"Ġkeeping":4973,"Ġmission":4974,"Ġnumerous":4975,"Ġtape":4976,"although":4977,"Ġvs":4978,"abe":4979,"Ġpartner":4980,"ugs":4981,"Ġhopes":4982,"ĠHorror":4983,"mare":4984,"ounds":4985,"Ġfinest":4986,"Ġbloody":4987,"Ġbelow":4988,"Ġdesperate":4989,"director":4990,"ĠAlan":4991,"Ġhumorous":4992,"Ġvillains":4993,"looking":4994,"Ġconfront":4995,"vant":4996,"Ġban":4997,"Ġreaction":4998,"ĠBrian":4999,"ĠMax":5000,"ĠLo":5001,"Ġtherefore":5002,"Ġtext":5003,"Ġspeech":5004,"ails":5005,"ĠArthur":5006,"Ġcrappy":5007,"Ġintellect":5008,");":5009,"II":5010,"ama":5011,"Ġring":5012,"Ġrelate":5013,"Ġeduc":5014,"Ġexperiment":5015,"Ġirritating":5016,"viron":5017,"yes":5018,"ÂĹ":5019,"atives":5020,"ĠWH":5021,"thony":5022,"Ġarr":5023,"Ġspoof":5024,"ĠBlood":5025,"anity":5026,"icate":5027,"ĠTer":5028,"Ġincomp":5029,"Ġresol":5030,"Ġcateg":5031,"ĠDar":5032,"ushing":5033,"Ġunint":5034,"Ġ11":5035,"elle":5036,"Ġheroine":5037,"Ġdealing":5038,"Ġrevealed":5039,"ĠCass":5040,"Ġrealism":5041,"Ġfinale":5042,"Ġresults":5043,"Ġadvice":5044,"Ġfrequ":5045,"Ġles":5046,"unted":5047,"Ġarm":5048,"Ġconcerned":5049,"Even":5050,"rs":5051,"Ġpupp":5052,"ĠRom":5053,"ĠNorth":5054,"Ġgrowing":5055,"screen":5056,"Ġofficer":5057,"ores":5058,"isc":5059,"Ġpulled":5060,"__":5061,"uk":5062,"Ġchurch":5063,"Ġwinning":5064,"Ġpilot":5065,"Ġnonsense":5066,"Ġwitty":5067,"Ġfate":5068,"irm":5069,"Ġwindow":5070,"Ġcircumst":5071,"rad":5072,"ĠDor":5073,"Ġskills":5074,"Ġguns":5075,"POILERS":5076,"rical":5077,"Ġshop":5078,"Ġowner":5079,"Ġphilos":5080,"Ġcuts":5081,"fortable":5082,"apl":5083,"Ġgoof":5084,"ques":5085,"umps":5086,"ĠEddie":5087,"Ġtalents":5088,"ued":5089,"Ġing":5090,"Ġearn":5091,"ante":5092,"Ġterribly":5093,"ĠQue":5094,"Ġstereotypes":5095,"Ġbot":5096,"ĠDem":5097,"Ġsteal":5098,"Ġordinary":5099,"sell":5100,"ĠCapt":5101,"ĠPlease":5102,"Ġtroub":5103,"Ġassass":5104,"porary":5105,"ĠWayne":5106,"Ġsed":5107,"Ġgru":5108,"alling":5109,"urity":5110,"unn":5111,"Ġsheer":5112,"Ġprint":5113,"Ġdiscovered":5114,"Ġsentiment":5115,"ĠLynch":5116,"zan":5117,"Ġsafe":5118,"Ġtoward":5119,"ĠRon":5120,"Ġteach":5121,"Ġconsist":5122,"anned":5123,"Ġanimal":5124,"ĠLouis":5125,"OL":5126,"Ġfif":5127,"Ġforces":5128,"Ġenviron":5129,"ups":5130,"rifying":5131,"ashes":5132,"ulf":5133,"ĠFrance":5134,"ĠDeath":5135,"Ġregular":5136,"???":5137,"ĠSince":5138,"ĠAndrew":5139,"Ġmonsters":5140,"Ġexpert":5141,"Ġwoods":5142,"Ġreceived":5143,"Ġcable":5144,"edding":5145,"Ġlat":5146,"ĠCent":5147,"Ġmanipul":5148,"Ġstarting":5149,"Ġpretentious":5150,"ĠSpanish":5151,"Ġremembered":5152,"ĠIm":5153,"Ġens":5154,"Ġdisp":5155,"Ġstudy":5156,"Ġpu":5157,"Ġchore":5158,"Ġsomebody":5159,"ruct":5160,"Ġcontinues":5161,"Ġpsychological":5162,"Ġgenuinely":5163,"vest":5164,"worth":5165,"Ġteenagers":5166,"Ġlevels":5167,"Ġprinci":5168,"core":5169,"Ġbath":5170,"ĠSn":5171,"Ġintent":5172,"Ġarch":5173,"Ġmini":5174,"Ġattitude":5175,"arently":5176,"ennis":5177,"Ġmedia":5178,"Ġcruel":5179,"Yes":5180,"ban":5181,"Ġfle":5182,"Ġfra":5183,"Ġheroes":5184,"ĠMrs":5185,"reedom":5186,"ĠAfrican":5187,"iro":5188,"Ġempty":5189,"Ġpark":5190,"Ġpaper":5191,"ads":5192,"ĠSean":5193,"Ġcorrupt":5194,"Ġmiser":5195,"Ġbreaks":5196,"ILL":5197,"ĠHay":5198,"Ġkiss":5199,"abeth":5200,"Ġfailure":5201,"Ġunfunny":5202,"ĠColumb":5203,"ĠTexas":5204,"nam":5205,"tw":5206,"anny":5207,"Ġgreen":5208,"Ġassoci":5209,"ĠThose":5210,"Ġmorning":5211,"Ġmodel":5212,"ĠEuropean":5213,"ilies":5214,"ĠBarry":5215,"ĠHaw":5216,"Ġcharism":5217,"Ġdisplay":5218,"Ġkinda":5219,"Ġsaved":5220,"glas":5221,"50":5222,"bell":5223,"Ġpress":5224,"Ġwealth":5225,"Ġorgan":5226,"ĠJose":5227,"ĠChan":5228,"Ġopens":5229,"Ġvisuals":5230,"Ġstrength":5231,"kins":5232,"some":5233,"Ġic":5234,"Ġsite":5235,"idge":5236,"ivered":5237,"ribut":5238,"ĠMont":5239,"ĠEVER":5240,"Ġspeed":5241,"Ġtrib":5242,"Ġreviewers":5243,"Ġsinger":5244,"ĠGuy":5245,"Ġspectacular":5246,"aa":5247,"iy":5248,"iens":5249,"ĠWas":5250,"ĠEric":5251,"Ġfeet":5252,"Ġdesire":5253,"athan":5254,"Ġcameo":5255,"Ġexistence":5256,"Ġconnection":5257,"point":5258,"yer":5259,"Ġfund":5260,"ĠCarr":5261,"ĠNick":5262,"Ġdistract":5263,"alloween":5264,"Ġperspective":5265,"Ġchalleng":5266,"Ġrelief":5267,"top":5268,"Ġcant":5269,"ulous":5270,"Ġsucked":5271,"Ġtruck":5272,"........":5273,"Ġedited":5274,"hearted":5275,"Ġoccasionally":5276,"bur":5277,"ĠWat":5278,"acc":5279,"ĠVal":5280,"Ġimagin":5281,"Ġsatire":5282,"Every":5283,"wolf":5284,"Ġgory":5285,"agal":5286,"Ġgeneration":5287,"Ġgrace":5288,"ĠEveryone":5289,"sec":5290,"aming":5291,"acting":5292,"ĠLi":5293,"Ġrange":5294,"Ġunable":5295,"luding":5296,"Ġdescribed":5297,"Ġmagnificent":5298,"Of":5299,"hent":5300,"Ġinh":5301,"Ġseat":5302,"Ġju":5303,"Ġfrank":5304,"ĠLewis":5305,"ĠOut":5306,"Ġoverly":5307,"Ġveter":5308,"Ġpit":5309,"iling":5310,"ĠDel":5311,"ĠViet":5312,"Ġdecision":5313,"Ġevidence":5314,"Ġmarry":5315,"ĠIsland":5316,"Ġcontrived":5317,"ube":5318,"iser":5319,"orious":5320,"Ġhall":5321,"Ġdecade":5322,"Ġlesson":5323,"Ġdiscovers":5324,"ae":5325,"ault":5326,"isa":5327,"Ġdated":5328,"ether":5329,"Ġsole":5330,"Ġunrealistic":5331,"Ġvote":5332,"Ġdreadful":5333,"Ġtack":5334,"ĠJan":5335,"away":5336,"uls":5337,"ometimes":5338,"Ġparody":5339,"Ġconnect":5340,"Ġhigher":5341,"Ar":5342,"RA":5343,"Ġgrew":5344,"Ġscrew":5345,"Ġgrown":5346,"Ġwarning":5347,"Ġinvolves":5348,"ĠKenn":5349,"ĠAustralian":5350,"fit":5351,"Ġfal":5352,"ching":5353,"Ġshallow":5354,"anged":5355,"Ġsyn":5356,"Ġcombination":5357,"Ġcash":5358,"ĠHart":5359,"Ġoriginally":5360,"Ġresearch":5361,"Ġsake":5362,"Ġfly":5363,"omed":5364,"ĠWild":5365,"Ġobl":5366,"Ġdelivered":5367,"Ġflashbacks":5368,"Ġsun":5369,"Ġgonna":5370,"Ġaltern":5371,"Ġuncom":5372,"finitely":5373,"aplin":5374,"Ġwhilst":5375,"Ġobsc":5376,"ĠAsian":5377,"Ġtypes":5378,"Also":5379,"nox":5380,"lear":5381,"Ġbear":5382,"ĠBBC":5383,"Ġchoose":5384,"Ġcreates":5385,"Ġextraord":5386,"ĠDouglas":5387,"UN":5388,"pent":5389,"arc":5390,"asm":5391,"ĠIT":5392,"ĠEs":5393,"Ġlogic":5394,"ĠVer":5395,"Ġmarvel":5396,"Ġprovided":5397,"Ġsnow":5398,"Let":5399,"Ġdi":5400,"ĠCat":5401,"outs":5402,"Ġvac":5403,"ĠWhich":5404,"Ġteenager":5405,"!).":5406,"GE":5407,"ym":5408,"Ġcyn":5409,"Ġnin":5410,"Ġpeace":5411,"ordon":5412,"Ġfeaturing":5413,"Ġcares":5414,"Ġgangster":5415,"Ġdelightful":5416,"Ġdressed":5417,"rix":5418,"ĠAnthony":5419,"Ġtheaters":5420,"Ġtor":5421,"Ġvul":5422,"Ġproved":5423,"Ġyeah":5424,"Ġbuilt":5425,"Ġfootball":5426,"Ġjudge":5427,"atra":5428,"Ġdry":5429,"ĠLord":5430,"ĠNO":5431,"Ġadvert":5432,"theless":5433,"Ġfamilies":5434,"Ġasking":5435,"ilty":5436,"Ġsend":5437,"Ġlaughter":5438,"Ġassume":5439,"Ġsword":5440,"ĠKeaton":5441,"ĠMorgan":5442,"Ġbroken":5443,"Ġloses":5444,"Ġcapable":5445,"Ġamateurish":5446,"law":5447,"tle":5448,"Ġpunch":5449,"Ġsea":5450,"ĠMal":5451,"ights":5452,"Ġbelieves":5453,"Ġcorny":5454,"Ġessentially":5455,"ĠSecond":5456,"uther":5457,"iration":5458,"Ġnecess":5459,"ĠEll":5460,"Then":5461,"ĠOl":5462,"osexual":5463,"ĠAndy":5464,"Ġunderrated":5465,"oken":5466,"Ġrefres":5467,"Ġsympathetic":5468,"Ġgraphic":5469,"hentic":5470,"Ġfrustr":5471,"Ġallows":5472,"ĠNic":5473,"Ġskill":5474,"Ġmeeting":5475,"Ġtraditional":5476,"mble":5477,"Ġsal":5478,"Ġredu":5479,"Ġbrilliantly":5480,"Ġemotionally":5481,"ĠFranc":5482,"ĠAgain":5483,"Ġgross":5484,"othy":5485,"ĠGary":5486,"ĠYOU":5487,"Ġcurious":5488,"ĠHitler":5489,"From":5490,"Ġtalks":5491,"Another":5492,"ĠJulie":5493,"IGH":5494,"gen":5495,"entionally":5496,"Ġglass":5497,"Ġmajority":5498,"ĠAcademy":5499,"Ġharm":5500,"Ġinex":5501,"Ġemer":5502,"owell":5503,"aret":5504,"ĠThank":5505,"Ġcreatures":5506,"RI":5507,"Ste":5508,"iforn":5509,"Ġconsequ":5510,"ĠTHIS":5511,"Ġvillage":5512,"Ġtreatment":5513,"Ġenvironment":5514,"ients":5515,"Ġbat":5516,"Ġda":5517,"ĠMic":5518,"Ġking":5519,"usi":5520,"Ġexecuted":5521,"Ġultimate":5522,"ĠLuc":5523,"ĠFar":5524,"ums":5525,"ĠJimmy":5526,"ba":5527,"yal":5528,"Ġeating":5529,"ĠMer":5530,"ulp":5531,"usive":5532,"Ġthoughts":5533,"Ġportrays":5534,"ĠLeon":5535,"Ġinept":5536,"Ġrescue":5537,"Ġpowers":5538,"lly":5539,"ĠWars":5540,"Ġscar":5541,"Ġvide":5542,"ĠLa":5543,"ummy":5544,"formed":5545,"Ġsitcom":5546,"ĠDaniel":5547,"LLY":5548,"Ġhandsome":5549,"Ġpropag":5550,"Ġexpression":5551,"uitous":5552,"Ġtedious":5553,"Ġnaive":5554,"rate":5555,"tain":5556,"ĠRose":5557,"angers":5558,"Ġsteals":5559,"Ġembarrassing":5560,"Ġhur":5561,"Ġseven":5562,"ĠRod":5563,"ĠJess":5564,"Ġpurch":5565,"Ġcolour":5566,"mo":5567,"Ġtick":5568,"Ġbodies":5569,"ĠLady":5570,"ĠJennifer":5571,"Ġendless":5572,"ĠAlbert":5573,"Ġcourt":5574,"Ġcircumstances":5575,"Ġharsh":5576,"Ġguest":5577,"Ġrevolution":5578,"Ġfict":5579,"Ġbag":5580,"Ġcrack":5581,"Ġcontrovers":5582,"Ġcaused":5583,"Ġscreaming":5584,"She":5585,"fl":5586,"Ġtable":5587,"Ġgas":5588,"Ġcompan":5589,"Ġaccomp":5590,"ule":5591,"Ġ)":5592,"stream":5593,"amily":5594,"ĠCamp":5595,"oyd":5596,"Ġreviewer":5597,"Ġinvolve":5598,"Ġexcited":5599,"Ġpromise":5600,"Ġvol":5601,"Ġviewed":5602,"Ġestabl":5603,"Ġdisgusting":5604,"ker":5605,"ĠPac":5606,"ĠChaplin":5607,"Ġwalked":5608,"ĠBroad":5609,"Ġcounter":5610,"Â´":5611,"ĠSund":5612,"ichol":5613,"Ġstreets":5614,"Ġpal":5615,"arian":5616,"imate":5617,"ĠMiche":5618,"ĠColl":5619,"ĠAnderson":5620,"Ġgrade":5621,"ucky":5622,"Ġpassed":5623,"Ġmurdere":5624,"Ġrefreshing":5625,"made":5626,"hem":5627,"Ġfreedom":5628,"ĠMil":5629,"Ġvan":5630,"Ġvoices":5631,"Ġages":5632,"izabeth":5633,"Ġcompos":5634,"Ġentertained":5635,"Ġsequels":5636,"aturday":5637,"ĠGermany":5638,"han":5639,"Ġinvent":5640,"Ġstanding":5641,"Ġidentity":5642,"ĠTrek":5643,"ifornia":5644,"Ġrental":5645,"Ġbringing":5646,"Ġlousy":5647,"lder":5648,"Ġsharp":5649,"Ġcosts":5650,"Ġnormally":5651,"Ġroutine":5652,"tr":5653,"itiz":5654,"ĠCle":5655,"uns":5656,"Ġconvey":5657,"tended":5658,"Ġproud":5659,"Ġladies":5660,"Pl":5661,"done":5662,"phy":5663,"Ġlone":5664,"ĠSH":5665,"ulation":5666,"Ġhorribly":5667,"Ġproduce":5668,"Ġappl":5669,"Ġauthentic":5670,"Ġstopped":5671,"Ġfare":5672,"Ġforth":5673,"ĠMatt":5674,"ĠLast":5675,"Ġspin":5676,"Ġstrongly":5677,"eanwhile":5678,"class":5679,"za":5680,"inis":5681,"Ġrend":5682,"Ġconce":5683,"Ġtechnology":5684,"Ġpleasant":5685,"ausible":5686,"dom":5687,"nal":5688,"Ġfame":5689,"ĠInt":5690,"ĠTed":5691,"Ġsoph":5692,"Ġplans":5693,"Ġende":5694,"viously":5695,"Ġweeks":5696,"ashington":5697,"Ġvehicle":5698,"IR":5699,"pir":5700,"ĠLook":5701,"umm":5702,"ummer":5703,"urns":5704,"ethod":5705,"Ġsuffering":5706,"Ġdubbed":5707,"Ġcontemporary":5708,"Ġsaving":5709,"ĠTime":5710,"roll":5711,"ura":5712,"ola":5713,"ĠGordon":5714,"ĠKu":5715,"ĠKong":5716,"ogether":5717,"Ġmatters":5718,"Ġwalks":5719,"ĠWilson":5720,"Ġexperienced":5721,"Ġbond":5722,"oting":5723,"atherine":5724,"Ġpainfully":5725,"ungle":5726,"Ġlearns":5727,"Ġsource":5728,"Ġsubtitles":5729,"Ġfits":5730,"Ġfacts":5731,"Ġzero":5732,"Ġshocked":5733,"Ġdollars":5734,"Ġcriticism":5735,"Ġqualities":5736,"ĠJesus":5737,"mother":5738,"Ġbre":5739,"enstein":5740,"espite":5741,"ĠDian":5742,"ĠFestival":5743,"ĠGene":5744,"Ġversions":5745,"Ġdepicted":5746,"Man":5747,"icit":5748,"Ġwhenever":5749,"Ġportraying":5750,"Ġhyster":5751,"ĠStreet":5752,"Ġgratuitous":5753,"ixt":5754,"whel":5755,"Ġancient":5756,"ĠRoman":5757,"Ġdepressing":5758,"Ġexcit":5759,"Ġruined":5760,"ait":5761,"taking":5762,"telling":5763,"upt":5764,"Ġhey":5765,"Ġterm":5766,"Ġreligion":5767,"Ġsatisfying":5768,"ĠBE":5769,"ĠCast":5770,"Ġblow":5771,"Ġspends":5772,"ĠSeagal":5773,"ĠPlus":5774,"ij":5775,"produ":5776,"ĠCinem":5777,"orted":5778,"reek":5779,"ĠBrad":5780,"Ġclassics":5781,"cohol":5782,"Ġrefer":5783,"Ġsubstance":5784,"Ġcas":5785,"onel":5786,"ynam":5787,"Ġcenter":5788,"Ġprior":5789,"Ġcartoons":5790,"\"),":5791,"Ġpan":5792,"Ġasleep":5793,"ĠWashington":5794,"Ġflesh":5795,"Ġemp":5796,"Ġideal":5797,"ĠUnivers":5798,"Ġlargely":5799,"Ġlosing":5800,"Ġwel":5801,"ĠPre":5802,"ĠLarry":5803,"Ġunfortun":5804,"avy":5805,"Ġdescript":5806,"aura":5807,"Ġinevit":5808,"Ġsegment":5809,"Ġslapstick":5810,"Ġenthusi":5811,"teresting":5812,"Ġlatest":5813,"ran":5814,"inated":5815,"itter":5816,"ĠBor":5817,"ĠCount":5818,"ĠFre":5819,"Ġtheatrical":5820,"Ġtwisted":5821,"ĠIrish":5822,"Ġlesbian":5823,"buster":5824,"otion":5825,"Ġchosen":5826,"ĠPict":5827,"ĠLam":5828,"Ġclue":5829,"Ġsports":5830,"phas":5831,"199":5832,"Ġangles":5833,"ĠComm":5834,"Ġlucky":5835,"Ġencounter":5836,"Ne":5837,"Ġlink":5838,"Ġexploitation":5839,"Cl":5840,"Fi":5841,"orting":5842,"ĠStone":5843,"Ġexperiences":5844,"Ġconvince":5845,"BO":5846,"Ġwitch":5847,"Ġdrop":5848,"Ġlie":5849,"etime":5850,"ĠAre":5851,"ĠMoon":5852,"ĠRen":5853,"Ġrecognize":5854,"ĠFrancis":5855,"Ġexcitement":5856,"Ġgig":5857,"Ġhen":5858,"ĠAdd":5859,"Ġteens":5860,"Ġbelieved":5861,"Ġpursu":5862,"ENT":5863,"oir":5864,"sen":5865,"ĠDog":5866,"umber":5867,"Ġevening":5868,"Ġpregn":5869,"Ġappropriate":5870,"Ġspeaks":5871,"Ġpropaganda":5872,"long":5873,"Ġbatt":5874,"Ġhol":5875,"Ġ14":5876,"Ġcring":5877,"ĠZomb":5878,"):":5879,"Ġsides":5880,"ston":5881,"Ġhearing":5882,"Ġprostit":5883,"apes":5884,"Ġvisually":5885,"Ġcommitted":5886,"ĠJackie":5887,"ĠBrothers":5888,"mind":5889,"eness":5890,"Ġrevel":5891,"Ġreject":5892,"kend":5893,"ĠSat":5894,"ĠGener":5895,"ĠKim":5896,"Ġmakeup":5897,"ĠUK":5898,"hens":5899,"ĠBarbara":5900,"BI":5901,"lim":5902,"Ġvague":5903,"Ġunfor":5904,"Ġsurface":5905,"Ġfactor":5906,"Ġappealing":5907,"Ġworthwhile":5908,"Ġcaptures":5909,"Ġsuffers":5910,"Ġfalse":5911,"udes":5912,"Ġpromising":5913,"ĠCaptain":5914,"Ġquir":5915,"ĠTHAT":5916,"198":5917,"Ġholding":5918,"Ġidiot":5919,"Ġvirtually":5920,"oly":5921,"Ġmask":5922,"Ġinner":5923,"ĠLA":5924,"Ġrough":5925,"udic":5926,"Ġprice":5927,"197":5928,"Ġmovement":5929,",'":5930,"Ġcore":5931,"add":5932,"urp":5933,"Ġshut":5934,"ĠVER":5935,"Ġperformed":5936,"Ġreput":5937,"Ġstructure":5938,"mma":5939,"Ġmultiple":5940,"Ġsemi":5941,"Ġrules":5942,"ĠNE":5943,"ĠKill":5944,"beat":5945,"Ġaccents":5946,"Ġfeatured":5947,"ĠSimon":5948,"Ġpractically":5949,"Ġunfortunate":5950,"oooo":5951,"ĠRun":5952,"Ġrise":5953,"ĠStates":5954,"Ġhandled":5955,"ĠJohnson":5956,"Ġcutting":5957,"oppy":5958,"ns":5959,"arning":5960,"ilogy":5961,"ighter":5962,"Ġcrash":5963,"ĠUnited":5964,"Ġexpos":5965,"Ġinfluence":5966,"fire":5967,"mond":5968,"Ġpity":5969,"Ġchose":5970,"Ġabuse":5971,"olic":5972,"ĠCanadian":5973,"Ġpraise":5974,"Ġrelatively":5975,"UR":5976,"VE":5977,"Watch":5978,"erie":5979,"athy":5980,"Ġnominated":5981,"Ġhaunting":5982,"Ġposition":5983,"ĠKore":5984,"ression":5985,"Ġincident":5986,"Ġspoilers":5987,"Ġ1960":5988,"ĠRussell":5989,"cula":5990,"Ġabr":5991,"Ġbound":5992,"Ġlower":5993,"ĠTO":5994,"ĠSher":5995,"Ġjail":5996,"opper":5997,"Do":5998,"ĠBern":5999,"raction":6000,"Ġalcohol":6001,"ĠLong":6002,"ĠGet":6003,"Ġenemy":6004,"ĠAlice":6005,"Ġlandsc":6006,"ĠPatrick":6007,"Ġstatement":6008,"Ġblonde":6009,"Ġbothered":6010,"Ġfrankly":6011,"ĠMir":6012,"Ġcommit":6013,"Ġtouches":6014,"Ġvariety":6015,"Ġsuspenseful":6016,"ĠMurphy":6017,"ĠHolmes":6018,"ked":6019,"Ġscale":6020,"Ġoutrage":6021,"Ġrot":6022,"Ġspark":6023,"Ġemphas":6024,"ĠclichÃ©d":6025,"Ġclaims":6026,"ĠJewish":6027,"Ġdegree":6028,"ĠVietnam":6029,"!),":6030,"Ġneat":6031,"ĠWhe":6032,"outhern":6033,"ĠRick":6034,"Ġoffensive":6035,"Ġ25":6036,"Ġrival":6037,"umbling":6038,"Ġfavorites":6039,"Ġsympathy":6040,"Ġinitial":6041,"ners":6042,"pet":6043,"Ġfestival":6044,"Ġacqu":6045,"ĠDoes":6046,"Ġerotic":6047,"Ġconversation":6048,"low":6049,"zo":6050,"Ġarrest":6051,"Ġguilty":6052,"ĠUp":6053,"Ġtraining":6054,"Ġadmire":6055,"including":6056,"ĠBrand":6057,"Ġaccidentally":6058,"Ġunconvin":6059,"Ġtoler":6060,"olen":6061,"ĠRem":6062,"Ġevol":6063,"Ġfigured":6064,"Ġpreviously":6065,"Ġobsessed":6066,"ĠJoseph":6067,"ww":6068,"Ġwrest":6069,"Ġcook":6070,"ĠTod":6071,"ĠSk":6072,"ĠSan":6073,"ĠBog":6074,"Ġpoign":6075,"Ġrealizes":6076,"Ġdirectly":6077,"Ġserves":6078,"ĠAfrica":6079,"Ġcategory":6080,"ĠBroadway":6081,"itious":6082,"Ġfish":6083,"lection":6084,"eter":6085,"Ġhack":6086,"ĠCH":6087,"Ġtrick":6088,"Ġdisag":6089,"Ġsupernatural":6090,"Ġsurprises":6091,"ĠEdward":6092,"Ġdestroyed":6093,"ION":6094,"orb":6095,"ari":6096,"Ġgentle":6097,"Ġwear":6098,"ĠWr":6099,"Ġexagger":6100,"ago":6101,"ĠNichol":6102,"Ġmyth":6103,"Ġeverywhere":6104,"Ġsorts":6105,"ship":6106,"Ġmethod":6107,"ĠSal":6108,"ĠEve":6109,"Ġ16":6110,"Ġspite":6111,"ĠChild":6112,"aze":6113,"Ġforgettable":6114,"Ġexecution":6115,"Ġmelodrama":6116,"Ġintellectual":6117,"Ġwedding":6118,"Ġboot":6119,"Ġcab":6120,"eds":6121,"ĠTy":6122,"Ġheck":6123,"chan":6124,"Ġsection":6125,"umph":6126,"ĠEvil":6127,"Ġcamer":6128,"Ġpresents":6129,"Ġconfess":6130,"ĠBefore":6131,"Ġunlikely":6132,"Ġgraph":6133,"Ġdemonstr":6134,"Ġextraordinary":6135,"Ġ#":6136,"Ġtill":6137,"rehens":6138,"Ġwound":6139,"Ġdirty":6140,"ĠHaving":6141,"Ġatro":6142,"ĠKate":6143,"assion":6144,"Ġbitter":6145,"ĠReally":6146,"Ġcostume":6147,"ĠRoberts":6148,"Ġpulls":6149,"Ġcontinuity":6150,"11":6151,"ipping":6152,"mal":6153,"Ġded":6154,"Ġludic":6155,"uty":6156,"ĠSE":6157,"ĠSid":6158,"ĠFull":6159,"Ġarg":6160,"Ġpolic":6161,"Ġcomplain":6162,"craft":6163,"cr":6164,"Ġbesides":6165,"Ġhealth":6166,"Ġenter":6167,"Ġfarm":6168,"Ġswim":6169,"Ġrequired":6170,"Ġmassive":6171,"Ġhanging":6172,"ĠHope":6173,"Ġjeal":6174,"ĠVinc":6175,"Ġcontact":6176,"Ġminds":6177,"Ġprofound":6178,"ĠElizabeth":6179,"Ġprepared":6180,"ĠCalifornia":6181,"ĠEastwood":6182,"ĠRoger":6183,"Is":6184,"Ġstom":6185,"ĠJac":6186,"Ġeffectively":6187,"apping":6188,"Ġdeaths":6189,"Ġcrying":6190,"Ġimprove":6191,"Ġ1930":6192,"chen":6193,"world":6194,"Ġice":6195,"enced":6196,"Ġstalk":6197,"Ġcovered":6198,"Ġprivate":6199,"ĠAnton":6200,"aust":6201,"cons":6202,"Ġtask":6203,"ato":6204,"ĠHoff":6205,"Ġexcess":6206,"Ġpolitics":6207,"ĠParker":6208,"rie":6209,"Ġpaced":6210,"ethe":6211,"ulci":6212,"Ġflo":6213,"Ġtrapped":6214,"ocal":6215,"ibal":6216,"ĠActually":6217,"Like":6218,"ipped":6219,"Ġcust":6220,"amous":6221,"rol":6222,"ĠMin":6223,"ĠMuch":6224,"Ġworry":6225,"ourne":6226,"Ġskip":6227,"Ġdriver":6228,"written":6229,"Ġremotely":6230,"ĠAvoid":6231,"\").":6232,"20":6233,"fess":6234,"Ġbab":6235,"ĠALL":6236,"ĠSaturday":6237,"ĠOld":6238,"Ġsimpl":6239,"ĠAnna":6240,"Ġreporter":6241,"Ġrenting":6242,"Ġstatus":6243,"Ġstereotypical":6244,"Ġreputation":6245,"ito":6246,"Ġfix":6247,"Ġpile":6248,"ĠHalloween":6249,"ĠPort":6250,"Ġflow":6251,"Ġcris":6252,"Ġimagery":6253,"Ġassum":6254,"Ġnarration":6255,"Ġservice":6256,"Ġfrightening":6257,"Ġabandoned":6258,"orig":6259,"Ġash":6260,"ĠRain":6261,"Ġreminis":6262,"Ġextras":6263,"Ġrepet":6264,"Ġfocused":6265,"Ġveteran":6266,"Ġfictional":6267,"IM":6268,"cies":6269,"ems":6270,"Ġsche":6271,"ĠRad":6272,"ĠFinally":6273,"Ġcourage":6274,"Ġconcert":6275,"Ġsensitive":6276,"wing":6277,"Ġsne":6278,"ĠIre":6279,"Ġ/>*":6280,"ĠMOV":6281,"ĠCas":6282,"ĠDennis":6283,"Ġupset":6284,"Ġgreater":6285,"Ġdistinct":6286,"Ġseasons":6287,"Ġaccompan":6288,"breaking":6289,"dim":6290,"Ġtiny":6291,"Ġwins":6292,"ĠMST":6293,"ĠCost":6294,"Ġnostal":6295,"Ġmistakes":6296,"iat":6297,"Ġhired":6298,"ĠWall":6299,"ĠOver":6300,"ĠChannel":6301,"ĠArt":6302,"Ġconvinced":6303,"Ġarrives":6304,"GM":6305,"ĠComp":6306,"ĠDun":6307,"weet":6308,"ĠBrooks":6309,"ĠDonald":6310,"Ġdevice":6311,"Ġtremend":6312,"Ġencou":6313,"Ġcloser":6314,"zil":6315,"Ġmainstream":6316,"Ġcalling":6317,"Ġaddict":6318,"Ġconcent":6319,"Ġpainting":6320,"Ġuniverse":6321,"Ġweapons":6322,"bit":6323,"ooth":6324,"Ġske":6325,"Ġwid":6326,"Ġfu":6327,"Ġcous":6328,"Ġbeach":6329,"Ġstolen":6330,"ĠBull":6331,"Ġdeeper":6332,"arden":6333,"ĠDean":6334,"Ġdepiction":6335,"Ġdistribut":6336,"ĠBeat":6337,"ĠCarpent":6338,"Ġcritical":6339,"Ġruin":6340,"ĠUSA":6341,"Ġhomosexual":6342,"Ġinterviews":6343,"IGHT":6344,"Ġsink":6345,"Ġyell":6346,"Ġcann":6347,"Ġparticip":6348,"oster":6349,"Ġstayed":6350,"Ġoccasional":6351,"Ġfunnier":6352,"etheless":6353,"after":6354,"enny":6355,"ĠTor":6356,"Ġlift":6357,"Ġchair":6358,"Ġoverlook":6359,"ĠIndia":6360,"ĠEspecially":6361,"laim":6362,"ĠTri":6363,"Ġplaced":6364,"Ġvast":6365,"ĠLane":6366,"Ġscenario":6367,"plays":6368,"Ġraised":6369,"liver":6370,"Ġcaptiv":6371,"uclear":6372,"Ġfocuses":6373,"Ġheavily":6374,"can":6375,"atically":6376,"Ġbore":6377,"asp":6378,"omer":6379,"ĠBon":6380,"Ġchoices":6381,"Ġunp":6382,"Ġdecades":6383,"Ġsounded":6384,"ĠCarol":6385,"Ġvampires":6386,"Ġdepartment":6387,"ĠSadly":6388,"ĠPresident":6389,"ĠVERY":6390,"Le":6391,"sm":6392,"ani":6393,"iform":6394,"ĠOff":6395,"acre":6396,"Ġpreview":6397,"Who":6398,"Ġsuffer":6399,"Ġclosing":6400,"Ġoffered":6401,"Ġlegendary":6402,"By":6403,"ga":6404,"och":6405,"onest":6406,"ĠHong":6407,"ĠFer":6408,"Ġamazed":6409,"Ġcolors":6410,"Ġfigures":6411,"ĠEnter":6412,"Ġgruesome":6413,"Ġnecessarily":6414,"Ġain":6415,"Ġbird":6416,"Ġdynam":6417,"Ġisol":6418,"ils":6419,"ilton":6420,"igr":6421,"Ġguard":6422,"Ġdownright":6423,"Ġbuying":6424,"Ġexplains":6425,"ĠThrough":6426,"spired":6427,"Ġunivers":6428,"ĠQueen":6429,"Ġpuzz":6430,"Ġ0":6431,"Ġtong":6432,"Ġreun":6433,"udge":6434,"Ġteeth":6435,"Ġcontest":6436,"Ġgritty":6437,"Ġdriven":6438,"Ġreveals":6439,"Ġmildly":6440,"Ġatrocious":6441,"Ġstomach":6442,"ĠHoffman":6443,"Ġoverwhel":6444,"ĠVamp":6445,"ĠUnder":6446,"Ġkillers":6447,"Ġcommand":6448,"Ġcontribut":6449,"Ġdinosaur":6450,"Am":6451,"Ġfab":6452,"Ġgre":6453,"amie":6454,"ĠFulci":6455,"iano":6456,"Ġpaying":6457,"Ġsisters":6458,"ĠMexican":6459,"Ġunderstood":6460,"gon":6461,"Ġloyal":6462,"Ġthrows":6463,"Ġblown":6464,"Ġkinds":6465,"Ġpaint":6466,"ĠPhill":6467,"ĠApparently":6468,"Ġmurderer":6469,"cause":6470,"wy":6471,"zed":6472,"Ġanger":6473,"ĠCare":6474,"elve":6475,"Ġaccording":6476,"Ġdemand":6477,"ĠAnyone":6478,"ĠTarzan":6479,"Ġunconvincing":6480,"Michael":6481,"case":6482,"ona":6483,"asant":6484,"Ġscr":6485,"ĠRos":6486,"Ġintens":6487,"umble":6488,"ĠNone":6489,"ella":6490,"Ġobnox":6491,"Ġscreening":6492,"Anyway":6493,"ĠHelen":6494,"\"?":6495,"Ġwand":6496,"Ġfil":6497,"Ġdom":6498,"ĠBaby":6499,"ĠMill":6500,"ĠHad":6501,"Ġserve":6502,"ĠClark":6503,"Ġformat":6504,"Ġuninteresting":6505,"ĠYeah":6506,"Ġsummary":6507,"gie":6508,"loyd":6509,"sch":6510,"ĠEach":6511,"ĠYour":6512,"Ġcrude":6513,"ĠArmy":6514,"Ġlistening":6515,"Ġchanging":6516,"Ġcomplicated":6517,"Ġfaithful":6518,"rees":6519,"ashy":6520,"Ġnaturally":6521,"imm":6522,"aki":6523,"aude":6524,"Ġspell":6525,"Ġcheese":6526,"ĠPlay":6527,"belief":6528,"Ġdesigned":6529,"Ġsucceeds":6530,"walk":6531,"inals":6532,"ĠDie":6533,"ĠPri":6534,"Ġbetray":6535,"obb":6536,"ĠThree":6537,"ĠScar":6538,"ĠBetty":6539,"Ġpregnant":6540,"IA":6541,"ĠTake":6542,"chy":6543,"ĠAir":6544,"ĠSO":6545,"Ġvia":6546,"ĠLater":6547,"Ġuniform":6548,"Ġmans":6549,"Ġ17":6550,"ĠChina":6551,"---":6552,"Ġoriginality":6553,"Ġhandle":6554,"Ġlights":6555,"Ġcauses":6556,"Ġsignificant":6557,"Ġinhab":6558,"isher":6559,"eral":6560,"Ġanime":6561,"ĠBu":6562,"Ġchief":6563,"ĠNat":6564,"Ġlog":6565,"Ġtrilogy":6566,"Ġcontain":6567,"ĠUs":6568,"Ġviews":6569,"ĠAsh":6570,"ception":6571,"coming":6572,"Ġwinner":6573,"Ġcombined":6574,"ĠDracula":6575,"Ġminimal":6576,"Mar":6577,"iques":6578,"Ġtiming":6579,"ĠOb":6580,"Ġseek":6581,"Ġcoinc":6582,"Ġpassing":6583,"Ġuncle":6584,"Ġcampy":6585,"Ġlawyer":6586,"Ġludicrous":6587,"CT":6588,"Okay":6589,"aver":6590,"noon":6591,"ĠAra":6592,"Ġhaunted":6593,"ĠHill":6594,"Ġprevent":6595,"ĠBlue":6596,"Ġgrave":6597,"Ġintegr":6598,"ĠLuke":6599,"ĠSinatra":6600,"ĠSun":6601,"ĠDet":6602,"Ġscares":6603,"ĠFBI":6604,"ugos":6605,"Ġfacial":6606,"ĠNazi":6607,"dimensional":6608,"ioned":6609,"ĠWor":6610,"Ġcharge":6611,"Ġade":6612,"Ġprime":6613,"Ġsecurity":6614,"Ġwarned":6615,"Ġbrave":6616,"Ġmagical":6617,"Ġquirky":6618,"gia":6619,"Ġpage":6620,"Ġnative":6621,"Ġnude":6622,"Ġstays":6623,"ids":6624,"Ġrub":6625,"Ġarms":6626,"Ġsubsequ":6627,"nery":6628,"ĠFriday":6629,"Ġshorts":6630,"Ġirre":6631,"Ġdivor":6632,"ĠWWII":6633,"ĠWalter":6634,"Ġgoofy":6635,"Ġdescription":6636,"Dav":6637,"fall":6638,"from":6639,"Ġbreaking":6640,"Ġthro":6641,"ulated":6642,"ĠDep":6643,"Ġthrowing":6644,"Ġriver":6645,"Ġevident":6646,"Ġattempting":6647,"ĠJulia":6648,"ĠANY":6649,"ĠCamer":6650,"girl":6651,"erved":6652,"Ġmas":6653,"Ġreward":6654,"Ġliber":6655,"Ġdogs":6656,"Ġstrict":6657,"ĠMcG":6658,"Ġdelivery":6659,".)<":6660,"Ġappreciated":6661,"Ġstruggling":6662,"Ġcapital":6663,"Ġanswers":6664,"pr":6665,"Ġfet":6666,"ĠSon":6667,"acle":6668,"Ġblat":6669,"Ġexamples":6670,"Ġamazingly":6671,"Ġforest":6672,"Ġadvant":6673,"Ġcondition":6674,"ĠSwed":6675,"ĠCarpenter":6676,"Ġchuck":6677,"usty":6678,"ĠPitt":6679,"Ġrights":6680,"Ġcarried":6681,"Ġjobs":6682,"ĠDoctor":6683,"Ġmetap":6684,"Ġinspiration":6685,"Ġexpressions":6686,"Ġfond":6687,"Ġseve":6688,"ĠMiller":6689,"Ġcomical":6690,"Ġextent":6691,"OOD":6692,"Ġregarding":6693,"ĠSunday":6694,"called":6695,"den":6696,"ĠMeanwhile":6697,"Ġtear":6698,"hett":6699,"ĠWelles":6700,"Ġpatient":6701,"ĠBerg":6702,"Ġproperly":6703,"Will":6704,"iable":6705,"jud":6706,"ida":6707,"ĠAL":6708,"Ġhalfway":6709,"ĠGrand":6710,"Ġignor":6711,"ĠOtherwise":6712,"Ġdisagree":6713,"ds":6714,"eed":6715,"kind":6716,"mod":6717,"tt":6718,"Ġtheory":6719,"Ġelder":6720,"style":6721,"ams":6722,"ĠMGM":6723,"osity":6724,"Ġdozen":6725,"Ġexer":6726,"Ġaliens":6727,"Ġdisbelief":6728,"Ġcarries":6729,"ĠGrant":6730,"ĠPlan":6731,"Ġrule":6732,"Ġintroduction":6733,"Ġdesperately":6734,"Ġjoin":6735,"Ġsophistic":6736,"Tw":6737,"ught":6738,"Ġinj":6739,"Ġeth":6740,"ĠPa":6741,"Ġstorytelling":6742,"ĠKnight":6743,"Ġeveryday":6744,"Ġincor":6745,"Ġsurf":6746,"Ġnovels":6747,"Ġweekend":6748,"Ġracist":6749,"Here":6750,"Ġnu":6751,"Ġnuclear":6752,"ada":6753,"cean":6754,"Ġbutt":6755,"ello":6756,"Ġstarred":6757,"Ġdinner":6758,"horror":6759,"iner":6760,"Ġgar":6761,"Ġ/>(":6762,"ĠTur":6763,"idents":6764,"ĠCage":6765,"Ġguar":6766,"Ġbasis":6767,"ĠWithout":6768,"Ġdrives":6769,"Ġdrinking":6770,"Ġbreathtaking":6771,"Ġobnoxious":6772,"80":6773,"Good":6774,"nes":6775,"nda":6776,"adays":6777,"ifies":6778,"actic":6779,"ĠLloyd":6780,"ĠJay":6781,"Ġmere":6782,"ĠNY":6783,"ianc":6784,"Ġenjoying":6785,"Ġhelping":6786,"ĠBeaut":6787,"Christ":6788,"Ġtun":6789,"Ġbill":6790,"char":6791,"ĠSometimes":6792,"ĠCru":6793,"ĠGoth":6794,"ounding":6795,"ĠKane":6796,"plend":6797,"Ġcheer":6798,"Ġrelated":6799,"Ġtouched":6800,"ĠBurton":6801,"Ġracism":6802,"iber":6803,"Ġbuddy":6804,"Ġheaven":6805,"ĠSovie":6806,"ĠCooper":6807,"ĠDa":6808,"ĠKurt":6809,"...\"":6810,"Ġdiss":6811,"Ġadop":6812,"Ġserved":6813,"ĠInc":6814,"beit":6815,"Ġletter":6816,"Ġbaseball":6817,"ĠSarah":6818,"Ġinterpretation":6819,"hib":6820,"Ġbik":6821,"ĠWonder":6822,"igned":6823,"Ġstupidity":6824,"Ġtransform":6825,"ĠCharl":6826,"Ġexecut":6827,"Ġproductions":6828,"Ġassistant":6829,"OP":6830,"Ġtree":6831,"ingers":6832,"iled":6833,"Ġmock":6834,"ĠMod":6835,"ĠCann":6836,"ĠDuring":6837,"Ġfranch":6838,"ĠRac":6839,"ĠRec":6840,"irected":6841,"Ġblah":6842,"Ġtitles":6843,"ĠItaly":6844,"Ġmentally":6845,"Ġignore":6846,"utherland":6847,"Despite":6848,"roph":6849,"ĠBack":6850,"ĠCole":6851,"Ġjungle":6852,"ĠLOV":6853,"ĠFin":6854,"ĠEnd":6855,"ĠOw":6856,"Ġretarded":6857,"Ġcredible":6858,"Ġcredibility":6859,"Ġparall":6860,"ĠWarner":6861,"Ġpurely":6862,"ĠWatching":6863,"Ġreference":6864,"Robert":6865,"ĠMOVIE":6866,"Jack":6867,"something":6868,"Ġhipp":6869,"Ġrev":6870,"ĠSav":6871,"ĠWind":6872,"onda":6873,"Ġpicks":6874,"Ġpsycho":6875,"Ġflawed":6876,"liners":6877,"CK":6878,"inging":6879,"Ġcand":6880,"aped":6881,"Ġentry":6882,"ĠArgent":6883,"Ġcultural":6884,"Ġratings":6885,"Ġbeloved":6886,"Ġturkey":6887,"Where":6888,"fits":6889,"bra":6890,"cker":6891,"tending":6892,"Ġcaring":6893,"Ġmiscast":6894,"iamond":6895,"Ġdetermined":6896,"ĠMickey":6897,"Ġcontroversial":6898,"Ġfac":6899,"Ġdude":6900,"Ġwears":6901,"Ġplastic":6902,"Ġrank":6903,"Ġcomedian":6904,"Ġsettings":6905,"Ġtreasure":6906,"Ġrevolves":6907,"ĠAustralia":6908,"Ġreminiscent":6909,"Director":6910,"Ġbow":6911,"Ġunbe":6912,"ĠArm":6913,"ĠMarg":6914,"Ġmedical":6915,"Ġtechnique":6916,"Ġaccepted":6917,"Ġattacks":6918,"Ġlonely":6919,"vo":6920,"Ġcy":6921,"Ġhole":6922,"ĠSir":6923,"Ġexists":6924,"ouses":6925,"ĠKarl":6926,"Ġargu":6927,"Ġpoet":6928,"Ġawards":6929,"ibilities":6930,"ographer":6931,"Ġescapes":6932,"wyck":6933,"Ġtense":6934,"Ġstunt":6935,"ĠMom":6936,"ĠCap":6937,"Ġshadow":6938,"Ġcha":6939,"ĠRet":6940,"ĠKrist":6941,"Ġdeadly":6942,"Ġannoun":6943,"Ġamongst":6944,"Ġjournal":6945,"ĠSanta":6946,"Ġwelcome":6947,"BS":6948,"utter":6949,"ety":6950,"ĠMass":6951,"Ġshark":6952,"Ġalright":6953,"olph":6954,"ĠKar":6955,"Ġrolling":6956,"Ġflight":6957,"Ġinteract":6958,"except":6959,"Ġtopic":6960,"Ġcountries":6961,"Ġattacked":6962,"Ġimmense":6963,"Ġinternational":6964,"lynn":6965,"ĠMusic":6966,"Ġsinister":6967,"Ġashamed":6968,"ease":6969,"hh":6970,"orc":6971,"alley":6972,"ĠCome":6973,"Ġshape":6974,"antino":6975,"ĠOur":6976,"Ġbackd":6977,"ĠStud":6978,"Ġgrim":6979,"Ġcastle":6980,"Ġindie":6981,"Ġstruggles":6982,"Ġ1940":6983,"Ġreplaced":6984,"Ġton":6985,"Ġnation":6986,"Ġlibr":6987,"ĠHA":6988,"Ġlearning":6989,"Ġsheriff":6990,"Ġresist":6991,"Ġperfection":6992,"Ġconfusion":6993,"ronic":6994,"Ġseparate":6995,"Ġtag":6996,"aron":6997,"ĠLat":6998,"Ġunderground":6999,"Ġdeliber":7000,"Ġcarrying":7001,"Ġcriminals":7002,"Ġbalance":7003,"Ġfulf":7004,"Ġhar":7005,"iger":7006,"Ġgreatly":7007,"forward":7008,"Ġdisgu":7009,"Ġanticip":7010,"Ġmiles":7011,"ĠMexico":7012,"Ġrisk":7013,"Ġstylish":7014,"Ġgraphics":7015,"Ġintensity":7016,"Ġadvantage":7017,"die":7018,"fest":7019,"together":7020,"when":7021,"Ġcock":7022,"Ġped":7023,"ĠBL":7024,"Ġsuffe":7025,"plete":7026,"Ġafternoon":7027,"Ġhorrific":7028,"ersonally":7029,"ĠDevil":7030,"Ġguessing":7031,"Ġstops":7032,"Ġaston":7033,"ĠPhilip":7034,"Ġthousands":7035,"inate":7036,"Ġmature":7037,"Ġkung":7038,"Ġnose":7039,"ĠKaren":7040,"Ġadding":7041,"vised":7042,"Ġexceptional":7043,"ification":7044,"gypt":7045,"Ġembarrassed":7046,"iveness":7047,"Ġpoignant":7048,"Ġtongue":7049,"Ex":7050,"Maybe":7051,"Per":7052,"fun":7053,"Ġtune":7054,"ingu":7055,"ĠSutherland":7056,"ustrated":7057,"opath":7058,"ĠLos":7059,"ĠLisa":7060,"Ġcance":7061,"Ġdislike":7062,"Ġraw":7063,"stery":7064,"chell":7065,"sett":7066,"Ġgripping":7067,"Ġnetwork":7068,"Ġcynical":7069,"Ġhip":7070,"Ġlazy":7071,"adows":7072,"rial":7073,"ĠMovies":7074,"ĠHal":7075,"Ġalleg":7076,"ĠOkay":7077,"ĠChic":7078,"rett":7079,"Ġsleazy":7080,"Ġangle":7081,"ĠAmaz":7082,"Ġspoiler":7083,"ĠWoody":7084,"Ġwealthy":7085,"ĠKennedy":7086,"Mr":7087,"pal":7088,"oration":7089,"ĠAward":7090,"ĠMU":7091,"ĠProdu":7092,"Ġletting":7093,"Ġmindless":7094,"ĠArn":7095,"Ġ1990":7096,"Ġinnocence":7097,"ĠPacino":7098,"hard":7099,"watch":7100,"Ġphen":7101,"Ġweight":7102,"ĠLand":7103,"aste":7104,"Ġunre":7105,"Ġarrog":7106,"ishment":7107,"ĠVen":7108,"gettable":7109,"onsider":7110,"Ġscreenwriter":7111,"Ġscripts":7112,"Ġopened":7113,"Ġpresentation":7114,"Ġmagaz":7115,"Ġequal":7116,"ĠPrince":7117,"Ġidiotic":7118,"Ġchallenge":7119,"Unfortunately":7120,"ĠAbout":7121,"Ġmountain":7122,"ĠBergman":7123,"Ġlaid":7124,"Ġnom":7125,"Ġnational":7126,"story":7127,"ĠCaine":7128,"Ġlovable":7129,"ĠOz":7130,"ĠIntern":7131,"Ġportra":7132,"ĠBeing":7133,"Ġinnov":7134,"ĠSuperman":7135,"Ġfrequently":7136,"ĠVincent":7137,"wor":7138,"chant":7139,"ĠCry":7140,"ogical":7141,"ocr":7142,"Ġfinan":7143,"Ġconsists":7144,"Ġartists":7145,"ĠReyn":7146,"Ġsuggests":7147,"Ġsleeping":7148,"ĠSusan":7149,"bid":7150,"mates":7151,"Ġbon":7152,"semble":7153,"Ġneck":7154,"ĠHa":7155,"ĠWater":7156,"Ġjumps":7157,"ĠRa":7158,"ĠFlor":7159,"Ġclips":7160,"Ġcontract":7161,"Ġfairy":7162,"Ġadventures":7163,"THE":7164,"ĠFreddy":7165,"Ġfranchise":7166,"TER":7167,"Ġcases":7168,"Ġpool":7169,"ogue":7170,"Ġatmospher":7171,"rama":7172,"Ad":7173,"EL":7174,"Wow":7175,"mitted":7176,"Ġcave":7177,"ila":7178,"Ġvivid":7179,"ĠLost":7180,"ĠGi":7181,"ĠNol":7182,"Ġcreation":7183,"phan":7184,"!!!!!!!!":7185,"Ġsteps":7186,"ĠHardy":7187,"Having":7188,"Ġnoted":7189,"ĠDave":7190,"unning":7191,"Ġvir":7192,"ĠClass":7193,"Ġunfold":7194,"Ġrobot":7195,"Ġimaginative":7196,"Ġaired":7197,"Ġnotable":7198,"ĠCatherine":7199,"ĠPowell":7200,"Ġmanager":7201,"retty":7202,"Ġborder":7203,"Ġtechniques":7204,"ĠColumbo":7205,"original":7206,"==":7207,"Bra":7208,"Ġcorn":7209,"cia":7210,"ĠAndre":7211,"Ġourselves":7212,"Ġsky":7213,"Ġoccup":7214,"ĠBritain":7215,"Ġ2001":7216,"ĠSchool":7217,"Ġrobber":7218,"ĠWalker":7219,"30":7220,"sky":7221,"writ":7222,"hest":7223,"Ġwanna":7224,"Ġfirm":7225,"Ġhiding":7226,"Ġsho":7227,"than":7228,"ĠLaura":7229,"Ġinstall":7230,"Ġnightmare":7231,"ĠBlair":7232,"going":7233,"Ġspecific":7234,"mate":7235,"order":7236,"Ġwasting":7237,"cellent":7238,"rig":7239,"ĠBollywood":7240,"ĠBesides":7241,"ĠPG":7242,"ĠPL":7243,"Ġripped":7244,"airs":7245,"Ġsket":7246,"Ġurban":7247,"ĠThings":7248,"ĠCameron":7249,"Ġsuffered":7250,"?).":7251,"Paul":7252,"UL":7253,"alph":7254,"Ġexch":7255,"Ġdece":7256,"ĠEgypt":7257,"ogan":7258,"Ġraise":7259,"ointed":7260,"Ġuseless":7261,"Ġattempted":7262,"Ġappearances":7263,"Ġironic":7264,"Ġpsychiat":7265,"ĠTommy":7266,"Ġstunts":7267,"ĠGrace":7268,"bbed":7269,"Ġofficial":7270,"Ġsearching":7271,"ĠStanwyck":7272,"OD":7273,"ype":7274,"Ġhes":7275,"amor":7276,"Ġvi":7277,"inda":7278,"ooky":7279,"Ġenorm":7280,"Ġhappiness":7281,"ĠAlong":7282,"umbs":7283,"Ġrestaur":7284,"Ġfallen":7285,"ĠMarie":7286,"Ġsuccessfully":7287,"Ġsedu":7288,"Ġvideos":7289,"AA":7290,"Most":7291,"iation":7292,"Ġsings":7293,"asion":7294,"seud":7295,"Ġstates":7296,"Ġstorm":7297,"ĠSomething":7298,"ĠHunter":7299,"Ġchilling":7300,"ĠWere":7301,"ĠWolf":7302,"ĠDream":7303,"Ġconven":7304,"ĠOliver":7305,"Ġrelax":7306,"Ġaccess":7307,"cover":7308,"Ã©e":7309,"comedy":7310,"Ġcorpor":7311,"EAD":7312,"Ġboredom":7313,"Ġphysically":7314,"Ġhooked":7315,"Ġoblig":7316,"Ġcousin":7317,"list":7318,"nan":7319,"arter":7320,"ĠAst":7321,"Ġvent":7322,"ĠGriff":7323,"Ġfriendly":7324,"ibl":7325,"Ġrefuses":7326,"Ġfemin":7327,"ĠConnery":7328,"Ġsexuality":7329,"Ġmeaningful":7330,"Ġinitially":7331,"Ġconsequences":7332,"ĠSoviet":7333,"Ġtempt":7334,"Ġsplend":7335,"erior":7336,"Ġlying":7337,"oops":7338,"ĠMa":7339,"Ġjack":7340,"Ġinstantly":7341,"ĠMatth":7342,"ĠGolden":7343,"Ġprotagonists":7344,"Ġbelongs":7345,"Ġtribute":7346,"Ġmarvelous":7347,"Ġestablished":7348,"Ġtorn":7349,"ĠTurn":7350,"ader":7351,"ĠMAN":7352,"ĠDad":7353,"ĠGreek":7354,"ĠNancy":7355,"Ġenh":7356,"place":7357,"plots":7358,"obi":7359,"Ġproof":7360,"ĠSoon":7361,"Char":7362,"Ġachieved":7363,"Ġweapon":7364,"end":7365,"lance":7366,"itchell":7367,"Ġtoile":7368,"Ġdign":7369,"Ġlyr":7370,"ĠBell":7371,"ĠFle":7372,"erty":7373,"Ġovercome":7374,"Ġspoken":7375,"ĠChuck":7376,"Ġirony":7377,"Ġstealing":7378,"Ġrepeat":7379,"rified":7380,"Ġessential":7381,"Ġcompetent":7382,"ĠUniversal":7383,"Ġfabulous":7384,"ux":7385,"Ġgal":7386,"ulate":7387,"quis":7388,"Ġlegs":7389,"Ġwerewolf":7390,"Ġposter":7391,"ONE":7392,"Ġconvict":7393,"Ġsurrounding":7394,"ĠAndrews":7395,"Ġexercise":7396,"va":7397,"vably":7398,"stop":7399,"iments":7400,"Ġanal":7401,"Ġsends":7402,"uno":7403,"ĠVeg":7404,"atholic":7405,"Ġtrial":7406,"Ġweakness":7407,"Ġsurviv":7408,"ĠVictoria":7409,"ĠFreeman":7410,"BLE":7411,"hill":7412,"Ġtied":7413,"itar":7414,"Ġnurse":7415,"rier":7416,"ulk":7417,"ĠLion":7418,"ĠLore":7419,"Ġpreach":7420,"orses":7421,"Ġwarn":7422,"Ġlacked":7423,"ĠUnlike":7424,"ĠClint":7425,"Ġcrafted":7426,"Ġneighborhood":7427,"ĠREALLY":7428,"Ġsentimental":7429,"ĠSatan":7430,"ĠReynolds":7431,"Ġinfect":7432,"entric":7433,"aying":7434,"iders":7435,"elson":7436,"ushes":7437,"ĠFlynn":7438,"ĠAlien":7439,"Ġtraum":7440,"Ġtriumph":7441,"Ġelabor":7442,"Ġcaric":7443,"Ġscientists":7444,"Ġambig":7445,"Ġobsession":7446,"Ġneighb":7447,"ĠTarantino":7448,"Ġmirror":7449,"hold":7450,"kick":7451,"aser":7452,"Ġeager":7453,"ĠHave":7454,"Ġshines":7455,"ĠWes":7456,"ĠFu":7457,"Ġmeat":7458,"Ġtender":7459,"Ġhorrend":7460,"oche":7461,"Ġappearing":7462,"ĠAtl":7463,"ĠMaria":7464,"Ġclosely":7465,"Ġdestro":7466,"ĠBasically":7467,"Ġtroubled":7468,"accur":7469,"Con":7470,"gun":7471,"wife":7472,"orrow":7473,"Ġpseud":7474,"ctions":7475,"Ġstumb":7476,"ĠSky":7477,"Ġsevent":7478,"cket":7479,"iffe":7480,"aky":7481,"ĠFair":7482,"Ġspots":7483,"thew":7484,"Ġterrit":7485,"Ġsolve":7486,"Ġmusicals":7487,"Ġspiritual":7488,"Ġessence":7489,"Ġperformers":7490,"Ġvacation":7491,"?),":7492,"rich":7493,"woman":7494,"Ġtrap":7495,"Ġsaves":7496,"Ġfest":7497,"Ġbudd":7498,"Ġthick":7499,"asingly":7500,"ĠCurt":7501,"ĠHud":7502,"eline":7503,"Ġseeking":7504,"ours":7505,"Ġglimp":7506,"ĠCharact":7507,"lett":7508,"Ġmillions":7509,"Ġconnected":7510,"ugosi":7511,"David":7512,"Ġglimpse":7513,"60":7514,"Ġwishes":7515,"Ġthirty":7516,"Ġbeer":7517,"ĠSally":7518,"Ġplant":7519,"ĠFamily":7520,"Ġtransfer":7521,"Ġannoyed":7522,"Ġdevil":7523,"uppet":7524,"Ġbroke":7525,"Ġhomage":7526,"Ġautom":7527,"Ġuncomfortable":7528,"ĠMichelle":7529,"ĠSol":7530,"Ġjerk":7531,"agine":7532,"ĠPenn":7533,"Ġintention":7534,"Ġspy":7535,"angle":7536,"Ġenjoyment":7537,"Ġcoach":7538,"Ġcarefully":7539,"Ġdramas":7540,"Ġdevelops":7541,"Ġdealt":7542,"Ġdaughters":7543,"Ġshoots":7544,"Ġ:)":7545,"Ġhundreds":7546,"ĠGeneral":7547,"Ġatmospheric":7548,"CE":7549,"LD":7550,"ĠBAD":7551,"ĠCind":7552,"Ġchases":7553,"ifting":7554,"Ġjew":7555,"ĠLI":7556,"aws":7557,"ructed":7558,"Ġinco":7559,"Ġdecl":7560,"Ġnowadays":7561,"Ġstranger":7562,"gging":7563,"Ġexplicit":7564,"Ġborrow":7565,"Ġlesser":7566,"Ġmonth":7567,"Ġopposed":7568,"Ġpersonalities":7569,"Ġconcerns":7570,"ĠBobby":7571,"inent":7572,"Ġmont":7573,"Ġpush":7574,"Ġdump":7575,"ĠId":7576,"ĠBall":7577,"Ġchoos":7578,"ĠPage":7579,"redict":7580,"Ġensemble":7581,"mentioned":7582,"awa":7583,"ĠVirgin":7584,"Ġrain":7585,"Ġdarkness":7586,"Ġthrilling":7587,"ANT":7588,"ielberg":7589,"Ġmadness":7590,"Ġidentify":7591,"Ġbroadcast":7592,"Ġthousand":7593,"Ġmiserably":7594,"ĠOliv":7595,"Ġbattles":7596,"Ġunforgettable":7597,"Finally":7598,"cut":7599,"ped":7600,"too":7601,"uke":7602,"Ġsail":7603,"Ġthread":7604,"stone":7605,"ado":7606,"ellar":7607,"Ġquote":7608,"Ġguilt":7609,"Ġbeings":7610,"riller":7611,"Ġbucks":7612,"emption":7613,"Ġimportantly":7614,"Ġultra":7615,"Ġafford":7616,"Ġoutrageous":7617,"Ġadequ":7618,"13":7619,"gra":7620,"Ġwreck":7621,"ata":7622,"Ġtow":7623,"Ġstyl":7624,"Ġstiff":7625,"rael":7626,"ĠHBO":7627,"Ġpointed":7628,"Ġstruck":7629,"ĠGermans":7630,"ĠComedy":7631,"Ġdollar":7632,"Ġkidnapped":7633,"Tom":7634,"US":7635,"iently":7636,"van":7637,"why":7638,"onse":7639,"Ġupper":7640,"ĠHome":7641,"Ġsuits":7642,"Ġvirgin":7643,"ĠLem":7644,"acked":7645,"ĠAlt":7646,"Ġconspir":7647,"Ġlessons":7648,"Ġdrags":7649,"Ġlarger":7650,"Ġmetal":7651,"Ġprofession":7652,"Ġuninspired":7653,"ĠFranco":7654,"Ġtax":7655,"rep":7656,"brick":7657,"ĠTop":7658,"ĠMid":7659,"Ġnotch":7660,"Ġattend":7661,"Ġalb":7662,"ĠRic":7663,"Ġspending":7664,"Ġgrows":7665,"rase":7666,"Ġwra":7667,"Ġactiv":7668,"Ġkicks":7669,"ĠGreg":7670,"ĠJamie":7671,"ĠKiller":7672,"Ġknife":7673,"Ġaged":7674,"Ġhopefully":7675,"Ġswitch":7676,"Ġacceptable":7677,"water":7678,"Ġcitiz":7679,"Ġdare":7680,"Ġinaccur":7681,"Ġheist":7682,"ĠMitchell":7683,"Ġnewsp":7684,"ĠReg":7685,"Ġstriking":7686,"Ġincompet":7687,"Ġunbear":7688,"ĠArnold":7689,"anc":7690,"ĠWOR":7691,"Ġsup":7692,"Ġrushed":7693,"Ġtricks":7694,"Ġincons":7695,"Ġembr":7696,"Ġsmooth":7697,"Ġdialogs":7698,"ĠTrue":7699,"Ġignored":7700,"ĠPolice":7701,"Ġincreasingly":7702,"Gr":7703,"Ġfaced":7704,"Ġhill":7705,"Ġecc":7706,"Ġbeating":7707,"Ġchasing":7708,"ifying":7709,"ĠRes":7710,"Ġunple":7711,"......":7712,"ĠDefinitely":7713,"Ġtalked":7714,"Ġbriefly":7715,"Ġcolorful":7716,"handed":7717,"onestly":7718,"lee":7719,"Ġmoon":7720,"Ġreb":7721,"Ġselect":7722,"ĠMet":7723,"aka":7724,"agan":7725,"ĠFro":7726,"uments":7727,"ĠGill":7728,"ographic":7729,"Ġsuperfic":7730,"Ġabrupt":7731,"Tr":7732,"Ġhung":7733,"Ġgain":7734,"ĠAT":7735,"ĠSuch":7736,"ĠBurt":7737,"ĠWould":7738,"istically":7739,"ĠRep":7740,"ĠNet":7741,"igan":7742,"erella":7743,"Ġ45":7744,"ormal":7745,"pses":7746,"Ġstrangely":7747,"Ġambitious":7748,"Ġcompetition":7749,"Ġdropped":7750,"--------":7751,"Ġrepeatedly":7752,"Ġdaily":7753,"SPOILERS":7754,"icing":7755,"Ġchap":7756,"Ġrhy":7757,"ĠGen":7758,"Ġunh":7759,"udos":7760,"Ġspread":7761,"Ġattraction":7762,"Ġsexually":7763,"Ġdragged":7764,"Ġriding":7765,"ĠSomeone":7766,"Ġhoped":7767,"Ġrevealing":7768,"ĠActing":7769,"Ġfolk":7770,"Ġinevitable":7771,"Ġrepetitive":7772,"ĠRachel":7773,"ĠMatthau":7774,"pse":7775,"Ġsize":7776,"Ġfianc":7777,"Ġtoss":7778,"Ġdomin":7779,"Ġguts":7780,"ĠAlf":7781,"Ġshall":7782,"ĠDrew":7783,"acted":7784,"Ġcomfort":7785,"ĠKen":7786,"Ġqueen":7787,"Ġchest":7788,"Ġsubplot":7789,"ĠWend":7790,"Ġeditor":7791,"Ġcorner":7792,"Ġthrillers":7793,"ĠIsrael":7794,"Ġdestruction":7795,"Ġlimit":7796,"Ġwesterns":7797,"Ġdisappear":7798,"series":7799,"Ġendearing":7800,"ĠKorean":7801,"ĠObviously":7802,"Rich":7803,"bal":7804,"gain":7805,"atisf":7806,"Ġbott":7807,"ĠLiving":7808,"ĠLugosi":7809,"ĠHeaven":7810,"Ġremaining":7811,"Ġrelevant":7812,"Ġexpensive":7813,"oilers":7814,"ĠIndians":7815,"********":7816,"ĠPrin":7817,"Ġghosts":7818,"Ġcuriosity":7819,"Ġmelodramatic":7820,"âĢĻ":7821,"Ġcringe":7822,"Ġportrait":7823,"atched":7824,"ĠMach":7825,"ĠFather":7826,"mann":7827,"ĠBrid":7828,"Ġhandful":7829,"ĠSpielberg":7830,"Ġeasier":7831,"ĠJessica":7832,"Ġsand":7833,"Ġgather":7834,"allo":7835,"kel":7836,"ĠDE":7837,"ĠDi":7838,"ĠDal":7839,"ĠRalph":7840,"Ġruth":7841,"ĠNational":7842,"Ġlocked":7843,"ables":7844,"weight":7845,"Ġexplore":7846,"Ġpatri":7847,"Ġimportance":7848,"Ġattracted":7849,"ĠJonathan":7850,"Ġelectric":7851,"Ġcharisma":7852,"!.":7853,"Ġ***":7854,"Ġthrew":7855,"only":7856,"Ġtom":7857,"Ġlur":7858,"icop":7859,"Ġselling":7860,"ĠHolly":7861,"ĠPower":7862,"Ġrat":7863,"ĠKhan":7864,"new":7865,"Ġappalling":7866,"Ġeleg":7867,"Ġbrand":7868,"AND":7869,"Ġnonetheless":7870,"Ġfourth":7871,"Ġrequires":7872,"ĠLaurel":7873,"Ġvulner":7874,"70":7875,"Br":7876,"Fr":7877,"book":7878,"Ġnail":7879,"ieu":7880,"cend":7881,"ĠBros":7882,"ĠMother":7883,"Ġshy":7884,"Ġtrite":7885,"resses":7886,"Ġsuburb":7887,"rison":7888,"Ġpresident":7889,"Ġcameos":7890,"Ġelev":7891,"Ġstudios":7892,"Ġselfish":7893,"Ġhonor":7894,"Ġinfamous":7895,"Ġbusy":7896,"Ġengine":7897,"ĠAusten":7898,"Ġresponse":7899,"ĠCheck":7900,"Ġstretch":7901,"Ġcandy":7902,"omic":7903,"Ġstated":7904,"ĠSur":7905,"ĠNelson":7906,"ptic":7907,"Ġfears":7908,"plane":7909,"Ġblows":7910,"ertainly":7911,"Ġ24":7912,"Ġterrifying":7913,"Ġilleg":7914,"Ġjudg":7915,"Ġdubbing":7916,"Ġintentions":7917,"Ġphenomen":7918,"hi":7919,"via":7920,"Ġfinger":7921,"Ġeerie":7922,"utch":7923,"ĠMiy":7924,"ĠCus":7925,"ela":7926,"Ġdepe":7927,"Ġargue":7928,"anging":7929,"Ġstring":7930,"Ġadapted":7931,"ĠNorman":7932,"Ġindividuals":7933,"Ġsophisticated":7934,"Ġbackdrop":7935,"Pe":7936,"ugh":7937,"Ġnuts":7938,"Ġstaff":7939,"ĠSPOILERS":7940,"Ġshout":7941,"ements":7942,"Ġabys":7943,"ĠRand":7944,"Ġwatches":7945,"Ġmyst":7946,"ĠUl":7947,"Ġglob":7948,"Ġcreators":7949,"Ġ2005":7950,"ĠNext":7951,"Ġsplit":7952,"Ġreactions":7953,"ĠSidney":7954,"iar":7955,"Ġafore":7956,"isation":7957,"Ġmes":7958,"ĠTem":7959,"ĠAz":7960,"ĠBac":7961,"eston":7962,"ĠPot":7963,"Ġclown":7964,"avor":7965,"ĠChurch":7966,"Ġreasonable":7967,"Ġelsewhere":7968,"ologist":7969,"Ġdemands":7970,"Ġreturning":7971,"Ġengaged":7972,"Star":7973,"ĠAngeles":7974,"Ġcommercials":7975,"Ġlifest":7976,"Ġexplosions":7977,"Ġbreasts":7978,"Ġtoilet":7979,"Ġterritory":7980,"Ġincoherent":7981,"ELL":7982,"See":7983,"Ġpa":7984,"Ġlust":7985,"Ġfeed":7986,"abs":7987,"Ġhappily":7988,"ivan":7989,"Ġrestra":7990,"Ġbasement":7991,"unky":7992,"Ġdevast":7993,"Ġmistaken":7994,"anagh":7995,"ĠMatrix":7996,"Ġhype":7997,"Ġinvestigation":7998,"Ġoccurs":7999,"Ġcardboard":8000,"ĠHudson":8001,"Ġunpleasant":8002,"Other":8003,"isions":8004,"ora":8005,"oni":8006,"Ġhood":8007,"Ġhorses":8008,"Ġstood":8009,"ĠHurt":8010,"Ġune":8011,"Ġgoal":8012,"Ġimit":8013,"eremy":8014,"Ġcrimes":8015,"Ġpresum":8016,"Ġchecking":8017,"Ġpacked":8018,"ĠRogers":8019,"Ġrevelation":8020,"Ġtremendous":8021,"rd":8022,"rink":8023,"Ġcig":8024,"Ġpin":8025,"Ġdub":8026,"leton":8027,"Ġetern":8028,"ĠMitch":8029,"ĠHug":8030,"ĠJer":8031,"Ġrealise":8032,"oiler":8033,"Ġobser":8034,"Ġprofessor":8035,"Ġbleak":8036,"Ġreplace":8037,"Ġmotivation":8038,"Ġrestaurant":8039,"Ġeccentric":8040,"Ġmaker":8041,"Ġpiano":8042,"Ġreli":8043,"ĠCur":8044,"uloid":8045,"usions":8046,"ĠRome":8047,"ĠGRE":8048,"Ġprecise":8049,"ipes":8050,"Ġkillings":8051,"Ġbrilliance":8052,"ventually":8053,"bbing":8054,"ĠLucy":8055,"Ġmedium":8056,"Ġraped":8057,"Ġwonders":8058,"Ġlibrary":8059,"ĠChicago":8060,"dog":8061,"ipe":8062,"nic":8063,"Ġwicked":8064,"Ġclues":8065,"....<":8066,"ĠHeart":8067,"Ġaccused":8068,"ograph":8069,"Ġinteraction":8070,"existent":8071,"ierce":8072,"Ġcaptain":8073,"ĠOscars":8074,"Ġdancer":8075,"Ġobserv":8076,"Ġinternet":8077,"Ġphotographer":8078,"Ġwidow":8079,"Ġhorrendous":8080,"Great":8081,"ez":8082,"yc":8083,"oms":8084,"idel":8085,"ĠCont":8086,"Ġareas":8087,"ablish":8088,"Ġhorrid":8089,"Ġexplod":8090,"ERS":8091,"Ġpleased":8092,"195":8093,"Ġrapid":8094,"ĠSeriously":8095,"Ġbeaten":8096,"Ġburst":8097,"Ġinexplic":8098,"'.<":8099,"lines":8100,"such":8101,"Ġoil":8102,"aning":8103,"Ġdent":8104,"ĠMA":8105,"ĠKirk":8106,"Ġprecious":8107,"Its":8108,"Ġdocumentaries":8109,"Ġpulling":8110,"Ġgrandfather":8111,"ĠSecret":8112,"Ġphilosoph":8113,"Ġassociated":8114,"Ge":8115,"ĠIce":8116,"Ġ/>'":8117,"ĠBart":8118,"ĠCub":8119,"Ġshower":8120,"Ġperpet":8121,"Ġdisplays":8122,"Ġcharacterization":8123,"Ġmessages":8124,"Ġcountless":8125,"194":8126,"Ġ2000":8127,"Ġdetailed":8128,"Ġmerit":8129,"ambling":8130,"ĠAlexander":8131,"ĠSandra":8132,"Ġsymbolism":8133,"Ġencounters":8134,"ĠZombie":8135,"Ġelderly":8136,"writers":8137,"Se":8138,"corn":8139,"rim":8140,"heim":8141,"Ġwann":8142,"omit":8143,"Ġgee":8144,"iere":8145,"ĠHas":8146,"ĠHind":8147,"agin":8148,"Ġranks":8149,"ĠFire":8150,"ĠGive":8151,"Ġthrills":8152,"ĠIndeed":8153,"chest":8154,"Ġ2006":8155,"orthy":8156,"ĠRussia":8157,"Ġsurrounded":8158,"Ġsegments":8159,"Ġcowboy":8160,"Ġfifteen":8161,"ĠDiane":8162,"Ġjealous":8163,"school":8164,"KE":8165,"mit":8166,"oven":8167,"tan":8168,"itchen":8169,"ĠTit":8170,"ĠSorry":8171,"Ġallowing":8172,"Ġalike":8173,"Ġmechan":8174,"Ġtimeless":8175,"obody":8176,"Ġhelicop":8177,"ĠAnim":8178,"Ġreturned":8179,"ĠConn":8180,"Ġrepresents":8181,"minute":8182,"Ġarrive":8183,"ĠPicture":8184,"Act":8185,"jointed":8186,"video":8187,"hey":8188,"Ġwake":8189,"omy":8190,"ĠMars":8191,"ĠMarsh":8192,"ĠHy":8193,"ĠHot":8194,"ophy":8195,"ĠRee":8196,"ĠFR":8197,"ĠJosh":8198,"ĠKath":8199,"ullivan":8200,"Ġguide":8201,"Ġperforming":8202,"Ġslick":8203,"veloped":8204,"Ġproviding":8205,"Ġforgive":8206,"Ġloser":8207,"Ġwalls":8208,"ĠEmily":8209,"Ġfortun":8210,"ĠLeslie":8211,"Ġresolution":8212,"ĠLeonard":8213,"ĠKubrick":8214,"Ġhysterical":8215,"Ġholiday":8216,"Ġargument":8217,"Com":8218,"Ġcried":8219,"idal":8220,"Ġabilities":8221,"ĠRow":8222,"Ġoutcome":8223,"Ġrow":8224,"Ġdismiss":8225,"Ġdirectorial":8226,"Ġreasonably":8227,"Ġliking":8228,"Ġpleasantly":8229,"Ġadvance":8230,"Ġmerc":8231,"ĠScience":8232,"Ġphotographed":8233,"Ġaccomplished":8234,"minded":8235,"Ġmansion":8236,"Ġsubsequent":8237,"Qu":8238,"onne":8239,"Ġtoy":8240,"Ġnine":8241,"ĠSU":8242,"Ġchain":8243,"Ġchamp":8244,"ĠWitch":8245,"Ġwheel":8246,"Ġ21":8247,"Ġdrown":8248,"Ġreluct":8249,"Ġfarce":8250,"ĠBruno":8251,"Ġdetract":8252,"Ġhearts":8253,"Ġmotor":8254,"Ġflawless":8255,"Ġspoiled":8256,"Ġreceive":8257,"ĠProbably":8258,"ĠIII":8259,"Ġaffection":8260,"Ġwondered":8261,"Ġlandscape":8262,"Ġsplendid":8263,"En":8264,"tte":8265,"Ġtons":8266,"Ġcared":8267,"Ġecon":8268,"ilted":8269,"ooges":8270,"ira":8271,"rior":8272,"ifically":8273,"ĠPoor":8274,"anson":8275,"Ġenters":8276,"Ġantics":8277,"Ġnearby":8278,"ĠJuliet":8279,"Ġidiots":8280,"OME":8281,"Ġinsulting":8282,"Ġescaped":8283,"ĠNazis":8284,"Ġresembles":8285,"ĠOwen":8286,"Ġvirus":8287,"ĠSC":8288,"ĠBry":8289,"Ġwebs":8290,"Ġattached":8291,"Ġgotta":8292,"ords":8293,"Ġworthless":8294,"Ġfancy":8295,"Ġdefinite":8296,"Ġcomplaint":8297,"chers":8298,"Ġimmigr":8299,"Ġtortured":8300,"Ġburned":8301,"ĠWalken":8302,"Very":8303,"cingly":8304,"ees":8305,"ih":8306,"Ġpushed":8307,"also":8308,"think":8309,"ĠGun":8310,"ortion":8311,"eping":8312,"Ġaudio":8313,"ĠThanks":8314,"Ġgenerous":8315,"Ġsadistic":8316,"Ġstronger":8317,"ĠFrankenstein":8318,"Once":8319,"Ġjumping":8320,"Ġcharismatic":8321,"ĠCinema":8322,"Night":8323,"cul":8324,"pieces":8325,"Ġmic":8326,"Ġextended":8327,"ĠEmma":8328,"ĠKa":8329,"plo":8330,"...)":8331,"Ġbelieving":8332,"ERE":8333,"196":8334,"Ġswear":8335,"Ġangel":8336,"Ġcausing":8337,"Ġmeaningless":8338,"Ġhighlights":8339,"Ġfortune":8340,"Ġpossessed":8341,"Ġunwatch":8342,"movies":8343,"Ġtall":8344,"Ġhunt":8345,"Ġpsy":8346,"Ġbeast":8347,"Ġsticks":8348,"ĠSex":8349,"ĠBaker":8350,"Ġbutton":8351,"Ġalbeit":8352,"Ġworried":8353,"Ġrive":8354,"venile":8355,"ĠGal":8356,"wered":8357,"Ġresour":8358,"Ġsmoke":8359,"Ġinvis":8360,"Ġinsist":8361,"isms":8362,"ĠFriend":8363,"ecess":8364,"Ġdemons":8365,"Ġcombat":8366,"Ġsuspects":8367,"Ġcontinued":8368,"Ġaffected":8369,"ĠCanada":8370,"Ġcrisis":8371,"Two":8372,"\";":8373,"rict":8374,"uity":8375,"Ġhitting":8376,"ĠIng":8377,"ĠTen":8378,"Ġstead":8379,"raw":8380,"agg":8381,"type":8382,"Ġcompassion":8383,"Ġpersona":8384,"Ġpossibility":8385,"Ġdistance":8386,"Ġlisted":8387,"Ġpolitic":8388,"Ġplanning":8389,"Ġsurvival":8390,"Ġprojects":8391,"Ġdiscussion":8392,"Ġcelluloid":8393,"Ġaimed":8394,"____":8395,"Ġbathroom":8396,"ixture":8397,"ĠIreland":8398,"Ġsuperficial":8399,"Su":8400,"Tit":8401,"hew":8402,"itches":8403,"Ġbold":8404,"Ġhire":8405,"Ġpig":8406,"Ġdaring":8407,"Ġgif":8408,"seen":8409,"ĠBuddy":8410,"Ġweb":8411,"ĠCow":8412,"ĠCall":8413,"ĠCould":8414,"ĠHopper":8415,"ĠWoman":8416,"Ġfrustrated":8417,"Ġwhoever":8418,"oln":8419,"ĠPen":8420,"ĠPersonally":8421,"peror":8422,"because":8423,"Ġimperson":8424,"Ġburied":8425,"Ġcovers":8426,"Ġmenacing":8427,"onym":8428,"Ġiron":8429,"Ġsentence":8430,"Ġrespond":8431,"ĠFilms":8432,"Ġtravels":8433,"Ġdelivering":8434,"Ġachievement":8435,"Ġcalm":8436,"Ġunintentionally":8437,"Ġingred":8438,"Int":8439,"crow":8440,"dated":8441,"fact":8442,"Ġ;":8443,"Ġsaf":8444,"Ġwack":8445,"Ġfitting":8446,"Ġgut":8447,"ĠCIA":8448,"ĠHanks":8449,"Ġplague":8450,"Ġcomfortable":8451,"ĠRoll":8452,"ĠFour":8453,"ĠFurther":8454,"ĠEN":8455,"Ġload":8456,"Ġblast":8457,"!!!!!":8458,"Ġdiff":8459,"Ġcareers":8460,"ĠCarter":8461,"ĠCarrey":8462,"ĠGeor":8463,"Ġsubjects":8464,"Ġinspiring":8465,"ESS":8466,"Ġsouls":8467,"ĠStanley":8468,"Ġloosely":8469,"Ġoffended":8470,"Ġassassin":8471,"Ġobscure":8472,"Ġmagazine":8473,"hour":8474,"jo":8475,"erning":8476,"Ġdiver":8477,"ĠAud":8478,"Ġvenge":8479,"ĠRing":8480,"Ġmaniac":8481,"Ġdisjointed":8482,"aval":8483,"Ġchildish":8484,"Ġconsum":8485,"ĠReed":8486,"Ġconcerning":8487,"ĠWillis":8488,"artha":8489,"Ġridiculously":8490,"Ġredemption":8491,"Ġstrip":8492,"rifice":8493,"ĠTrain":8494,"Ġdraws":8495,"Ġdrivel":8496,"Ġgolden":8497,"Ġbirthday":8498,"Ġinvolvement":8499,"AIN":8500,"Sec":8501,"bury":8502,"iper":8503,"kish":8504,"lers":8505,"maybe":8506,"sl":8507,"Ġ**":8508,"itudes":8509,"ĠTru":8510,"ameless":8511,"ĠCivil":8512,"ĠWow":8513,"Ġrural":8514,"ĠGhost":8515,"Ġshel":8516,"asses":8517,"erek":8518,"Ġhorrors":8519,"Ġabsorb":8520,"useum":8521,"Ġtypically":8522,"Ġbuilds":8523,"urious":8524,"Ġprisoners":8525,"ĠMurray":8526,"Ġlogical":8527,"ĠGothic":8528,"James":8529,"box":8530,"love":8531,"paced":8532,"Ġwest":8533,"Ġfired":8534,"Ġdire":8535,"Ġnut":8536,"Ġbeats":8537,"ĠSister":8538,"race":8539,"ĠCatholic":8540,"aks":8541,"Ġramp":8542,"icularly":8543,"Ġcorpse":8544,"oubted":8545,"Ġpicking":8546,"Ġdevoid":8547,"Ġsuperbly":8548,"Ġblend":8549,"ĠMatthew":8550,"Black":8551,"Ġmetaphor":8552,"Ġastonishing":8553,"Richard":8554,"put":8555,"ration":8556,"Ġsen":8557,"Ġsill":8558,"Ġfed":8559,"Ġcere":8560,"Ġdict":8561,"Ġgift":8562,"istan":8563,"ĠRiver":8564,"ĠField":8565,"Ġsport":8566,"Ġflu":8567,"Ġscripted":8568,"gger":8569,"ĠThink":8570,"bsolute":8571,"ĠStreep":8572,"Ġinvestigate":8573,"opsis":8574,"Ġgradu":8575,"ĠNEVER":8576,"ĠWallace":8577,"ĠCusack":8578,"cont":8579,"iors":8580,"Ġheight":8581,"aye":8582,"ooge":8583,"ortal":8584,"force":8585,"Ġspooky":8586,"Ġdifferences":8587,"Ġglory":8588,"ĠDev":8589,"Ġmorality":8590,"incoln":8591,"Ġslightest":8592,"Ġlabor":8593,"Ġimplausible":8594,"ACK":8595,"ĠLinda":8596,"Ġingen":8597,"Ġprostitute":8598,"Ġexaggerated":8599,"ĠVampire":8600,"Ġpseudo":8601,"Ġaforementioned":8602,"Ġunwatchable":8603,"Ke":8604,"gal":8605,"Ġsam":8606,"Ġward":8607,"Ġdre":8608,"Ġduty":8609,"ications":8610,"keys":8611,"ĠPo":8612,"ĠFore":8613,"ĠFoster":8614,"ĠJake":8615,"ĠEX":8616,"ĠVideo":8617,"Ġmaint":8618,"ĠUncle":8619,"Ġassault":8620,"eyed":8621,"Ġtechnically":8622,"Ġerrors":8623,"ĠHighly":8624,"Ġdefend":8625,"ĠNevertheless":8626,"ĠLawrence":8627,"ĠCampbell":8628,"ĠBrando":8629,"Perhaps":8630,"Ġinstallment":8631,"ĠAltman":8632,"got":8633,"ya":8634,"Ġnerv":8635,"aled":8636,"Ġreached":8637,"ĠMed":8638,"Ġdoz":8639,"Ġdear":8640,"ĠFonda":8641,"Ġoffering":8642,"Ġwhereas":8643,"Ġremoved":8644,"Ġgrasp":8645,"Ġtracks":8646,"ĠShep":8647,"Ġdistant":8648,"ĠUnion":8649,"ĠSeason":8650,"ATCH":8651,"balls":8652,"ĠNeed":8653,"Though":8654,"Ġimproved":8655,"Ġlabel":8656,"Ġlifetime":8657,"Ġconversations":8658,"Ġstinker":8659,"Ġproceedings":8660,"Ġticket":8661,"ĠArgento":8662,"redictable":8663,"Ġruthless":8664,"El":8665,"OST":8666,"ware":8667,"Ġwave":8668,"Ġbust":8669,"Ġpatter":8670,"aris":8671,"Ġinher":8672,"Ġstole":8673,"Ġasp":8674,"ĠSub":8675,"Ġmeasure":8676,"Ġnoise":8677,"eller":8678,"Ġprejud":8679,"izz":8680,"Ġkidding":8681,"ĠBlake":8682,"ĠReal":8683,"Ġconclud":8684,"Ġsadness":8685,"Ġpopcorn":8686,"Ġdiscovery":8687,"Ġsigns":8688,"Ġrequire":8689,"Ġdrunken":8690,"Ġbenefit":8691,"rehensible":8692,"zel":8693,"Ġsons":8694,"Ġasse":8695,"uristic":8696,"Ġnotes":8697,"ĠCour":8698,"ĠDays":8699,"ĠFOR":8700,"ĠFiction":8701,"hattan":8702,"Ġhumili":8703,"ĠWhatever":8704,"astern":8705,"Ġheroic":8706,"Ġgroups":8707,"Ġdevoted":8708,"Ġmarks":8709,"Ġscientific":8710,"Ġofficers":8711,"ĠAngela":8712,"ffee":8713,"ĠONE":8714,"Ġisolated":8715,"Ġstrictly":8716,"town":8717,"ĠâĢ":8718,"Ġhunting":8719,"ĠCre":8720,"Ġshoes":8721,"agn":8722,"ĠLang":8723,"ĠNavy":8724,"Ġpretend":8725,"Ġdisli":8726,"Ġdisease":8727,"Ġdialogues":8728,"ortunately":8729,"grade":8730,"Ġheaded":8731,"Ġtales":8732,"Ġtransport":8733,"Ġpredecess":8734,"Ġillustr":8735,"Ġtrend":8736,"Ġtraveling":8737,"Ġoccurred":8738,"ĠCassave":8739,"Ġtorment":8740,"Ġdedicated":8741,"Ġoverlooked":8742,"\"-":8743,"fight":8744,"Ġ..":8745,"Ġcroc":8746,"ĠIra":8747,"Ġbefriend":8748,"sex":8749,"ĠCase":8750,"ĠDown":8751,"Ġvicious":8752,"ĠRoss":8753,"ĠGabr":8754,"ĠEle":8755,"Ġgoodness":8756,"Ġclosed":8757,"aph":8758,"Ġpoison":8759,"Ġbridge":8760,"Ġ192":8761,"ahl":8762,"ĠForce":8763,"Ġmovements":8764,"Ġunfair":8765,"Still":8766,"afia":8767,"ĠTracy":8768,"ĠMadonna":8769,"Ġcurrently":8770,"ĠSpecial":8771,"ĠTechn":8772,"Ġjuvenile":8773,"Ġlyrics":8774,"nest":8775,"Ġmixture":8776,"Ġpir":8777,"ancing":8778,"ĠImp":8779,"ilarly":8780,"ĠAW":8781,"ĠBol":8782,"ĠBoll":8783,"ĠBates":8784,"Ġshirt":8785,"umsy":8786,"ĠKat":8787,"Ġspare":8788,"obic":8789,"ĠAlmost":8790,"Ġtrio":8791,"ovich":8792,"Ġsidekick":8793,"ĠGrade":8794,"Ġopinions":8795,"Ġdisturbed":8796,"Ġinfluenced":8797,"ĠLucas":8798,"enes":8799,"Ġtool":8800,"Ġlit":8801,"ĠIron":8802,"Ġstaged":8803,"terday":8804,"emark":8805,"Ġaltogether":8806,"ĠRight":8807,"ĠFel":8808,"Ġagents":8809,"Ġconserv":8810,"Ġcollabor":8811,"Ġwinds":8812,"Ġrecognition":8813,"Ġintrigue":8814,"Ġgradually":8815,"Ġinhabit":8816,"ĠGriffith":8817,"Ġdignity":8818,"Ġelaborate":8819,"Ed":8820,"atures":8821,"Ġgimm":8822,"ĠTot":8823,"Ġreh":8824,"ĠBal":8825,"ĠBach":8826,"ĠCandy":8827,"ularly":8828,"ĠDirect":8829,"emies":8830,"ĠLincoln":8831,"Ġconvol":8832,"Ġoverdone":8833,"Ġroot":8834,"Ġblank":8835,"Ġdecisions":8836,"ocative":8837,"Ġindul":8838,"Ġadmitted":8839,"Ġcommented":8840,"Ġstaying":8841,"ĠNeil":8842,"Ġconventional":8843,"Ġprimarily":8844,"ĠDorothy":8845,"Ġunbearable":8846,"Ġmesmer":8847,"Ġwont":8848,"oning":8849,"Ġhun":8850,"Ġhunter":8851,"Ġpunk":8852,"ione":8853,"Ġdoors":8854,"ĠPretty":8855,"Ġsloppy":8856,"Ġharder":8857,"Ġgeneric":8858,"Ġsteam":8859,"ĠAmanda":8860,"Ġrecorded":8861,"Ġterrorist":8862,"Ġintrigued":8863,"Ġorders":8864,"Ġhatred":8865,"ĠSilver":8866,"urpris":8867,"ĠSwedish":8868,"Av":8869,"God":8870,"Look":8871,"des":8872,"ket":8873,"Ġpitch":8874,"Ġinject":8875,"ĠSen":8876,"ĠBook":8877,"ĠMun":8878,"olves":8879,"ĠGarb":8880,"never":8881,"Ġperformer":8882,"Ġracial":8883,"Ġrelies":8884,"ĠClaire":8885,"Ġadmir":8886,"Ġbrains":8887,"iko":8888,"Ġmotives":8889,"Ġmurderous":8890,"Ġcurse":8891,"Ġscreams":8892,"ĠDragon":8893,"Ġthreatening":8894,"Ġduo":8895,"Ġreduced":8896,"Ġrubber":8897,"Ġthroat":8898,"ĠLOVE":8899,"Dr":8900,"OS":8901,"every":8902,"mail":8903,"Ã¡":8904,"Ġack":8905,"Ġought":8906,"oric":8907,"oup":8908,"ouch":8909,"Ġinapp":8910,"stars":8911,"ima":8912,"aman":8913,"ĠHood":8914,"unior":8915,"eland":8916,"ĠRather":8917,"orton":8918,"Ġcliff":8919,"Ġsett":8920,"onson":8921,"Ġhardcore":8922,"ĠBeck":8923,"Ġpopulation":8924,"Ġsecrets":8925,"Ġgrandmother":8926,"Ġrecognized":8927,"related":8928,"Ġbullet":8929,"ĠSyd":8930,"ĠTodd":8931,"ĠArab":8932,"ĠPlanet":8933,"oubtedly":8934,"Hey":8935,"Too":8936,"Ġsales":8937,"itched":8938,"Ġcure":8939,"alo":8940,"Ġreaches":8941,"ghan":8942,"ĠBrend":8943,"ĠMo":8944,"Ġdoomed":8945,"ĠPred":8946,"ĠRub":8947,"ĠLake":8948,"ĠGil":8949,"resp":8950,"ĠNed":8951,"Ġrocks":8952,"Ġafterwards":8953,"Ġgenres":8954,"Ġinsert":8955,"ĠBrook":8956,"Ġcoffee":8957,"Ġartific":8958,"ĠClub":8959,"Ġtitled":8960,"Ġsadd":8961,"Ġnarrator":8962,"Ġsubtlety":8963,"Ġfrag":8964,"Ġfrustrating":8965,"Ġarrested":8966,"Ġencoura":8967,"Ġparallel":8968,"Ġnewspaper":8969,"Te":8970,"Ġtie":8971,"itled":8972,"Ġfro":8973,"Ġfoul":8974,"Ġbog":8975,"Ġho":8976,"Ġpubl":8977,"Ġstro":8978,"ĠABC":8979,"Ġnotably":8980,"Ġnotorious":8981,"ĠHust":8982,"Ġkitchen":8983,"Ġplanned":8984,"ĠLots":8985,"ĠJu":8986,"inder":8987,"ĠEri":8988,"Ġnoble":8989,"Ġaging":8990,"ressive":8991,"Ġproducing":8992,"Ġcoherent":8993,"Ġabsence":8994,"Ġmisses":8995,"Ġdarker":8996,"Ġsuspic":8997,"Ġpolitically":8998,"Ġexisted":8999,"ĠFrankie":9000,"ĠCraw":9001,"Ġsacrific":9002,"Ġsimplistic":9003,"Ġcaptivating":9004,"ĠNatal":9005,"Ġarrogant":9006,"works":9007,"Ġlifestyle":9008,"Ġacknow":9009,"vity":9010,"Ġwrap":9011,"itual":9012,"Ġbin":9013,"Ġcards":9014,"Ġpants":9015,"verty":9016,"entin":9017,"rip":9018,"ĠMann":9019,"ĠHunt":9020,"andra":9021,"ĠRaj":9022,"ĠLen":9023,"elli":9024,"Ġpasses":9025,"Ġsatir":9026,"ika":9027,"Ġpsychotic":9028,"Ġodds":9029,"Ġsilver":9030,"Ġstrike":9031,"Ġstereotype":9032,"ĠQuinn":9033,"Ġexplaining":9034,"Ġmodels":9035,"Ġunbelievably":9036,"ĠCraig":9037,"Ġclothing":9038,"Before":9039,"Ġdigital":9040,"ĠDuke":9041,"Ġphilosophy":9042,"Ġdistracting":9043,"Ġinventive":9044,"ĠMassacre":9045,"Ġenormous":9046,"Ġillegal":9047,"HING":9048,"Ye":9049,"aith":9050,"Ġax":9051,"Ġsag":9052,"Ġcup":9053,"eder":9054,"ĠSqu":9055,"ĠDill":9056,"estic":9057,"Ġtrade":9058,"Ġpoverty":9059,"Ġfuneral":9060,"Ġslim":9061,"Ġincest":9062,"Ġacclaim":9063,"Ġhanded":9064,"Ġimagined":9065,"ĠBlock":9066,"ĠSpring":9067,"shot":9068,"Ġunfolds":9069,"ĠMorris":9070,"Ġestablish":9071,"ĠGlenn":9072,"Ġsucceeded":9073,"ĠEVERY":9074,"Ġsolely":9075,"Ġcameras":9076,"Ġscratch":9077,"Ġpsychiatrist":9078,"Ġconspiracy":9079,"Ġconvoluted":9080,"makers":9081,"otte":9082,"ĠTob":9083,"Ġnotion":9084,"Ġchances":9085,"ĠDerek":9086,"isten":9087,"icking":9088,"Ġclumsy":9089,"ipment":9090,"Ġapolog":9091,"Ġsmoking":9092,"aneously":9093,"Ġexposed":9094,"Ġgrab":9095,"comp":9096,"shi":9097,"????":9098,"Ġintroduces":9099,"mares":9100,"Ġcatches":9101,"ĠMonster":9102,"Ġtrademark":9103,"Ġdepicts":9104,"warming":9105,"Ġdescribes":9106,"Ġhighest":9107,"Ġexplosion":9108,"Ġfilth":9109,"Ġbuddies":9110,"')":9111,"hs":9112,"ril":9113,"Ġfrench":9114,"Ġthief":9115,"oner":9116,"Ġlake":9117,"child":9118,"ĠAcc":9119,"irts":9120,"ĠBurns":9121,"Ġcomics":9122,"Ġconve":9123,"ciating":9124,"Ġspaces":9125,"Ġrecru":9126,"ĠBranagh":9127,"Ġdepressed":9128,"Ġhopeless":9129,"Ġprovoking":9130,"ĠGodfather":9131,"Ġclimb":9132,"ĠJulian":9133,"Ġporno":9134,"Ġwitnessed":9135,"ĠSandler":9136,"Ġsynopsis":9137,"Ġscheme":9138,"\"...":9139,"Ser":9140,"great":9141,"run":9142,"uable":9143,"Ġpays":9144,"Ġdust":9145,"ĠTal":9146,"Ġstone":9147,"ĠBuck":9148,"ĠBald":9149,"ĠPoint":9150,"Ġunsett":9151,"eps":9152,"Ġfactory":9153,"Ġthoughtful":9154,"Ġmonot":9155,"ĠSpike":9156,"Ġfantas":9157,"ONG":9158,"Ġcountryside":9159,"Ġhonesty":9160,"Ġfatal":9161,"Ġsacrifice":9162,"Ġchoreography":9163,"Ġcabin":9164,"Ġblatant":9165,"Ġpoetry":9166,"Ġchaos":9167,"Ġmontage":9168,"Che":9169,"lan":9170,"Ġsarc":9171,"ĠCD":9172,"ĠDom":9173,"ĠJeremy":9174,"ĠShir":9175,"ĠRobb":9176,"ĠManhattan":9177,"Ġmisunder":9178,"Ġpsychopath":9179,"Ġbuildings":9180,"Ġoddly":9181,"Ġsecretary":9182,"Ġamounts":9183,"prov":9184,"ĠCentury":9185,"Ġimmensely":9186,"ĠCinderella":9187,"Ġdozens":9188,"High":9189,"foot":9190,"la":9191,"pin":9192,"Ġwet":9193,"Ġocean":9194,"athetic":9195,"Ġfart":9196,"Ġcats":9197,"Ġgall":9198,"adget":9199,"ĠBett":9200,"ĠDin":9201,"ĠFat":9202,"ĠNin":9203,"Ġneglect":9204,"cience":9205,"Ġclic":9206,"Ġagreed":9207,"aware":9208,"ĠStra":9209,"ruciating":9210,"Ġconsistent":9211,"Ġinstant":9212,"Ġcarn":9213,"Ġsympath":9214,"Ġestate":9215,"Donald":9216,"ĠGlover":9217,"ĠBoys":9218,"Ġthankfully":9219,"Ġinnovative":9220,"PS":9221,"UM":9222,"bow":9223,"Ġ=":9224,"Ġmal":9225,"Ġmaid":9226,"Ġbes":9227,"Ġbone":9228,"icient":9229,"Ġnause":9230,"ĠTR":9231,"ĠSummer":9232,"Ġshadows":9233,"agney":9234,"Ġvoy":9235,"ĠLow":9236,"ĠJord":9237,"Ġups":9238,"Ġimpe":9239,"Ġadoles":9240,"ctional":9241,"Ġclassical":9242,"Ġexplored":9243,"Ġelim":9244,"ommended":9245,"rossing":9246,"Ġequipment":9247,"Ġdamage":9248,"Ġsatisfied":9249,"Ġbullets":9250,"Ġprimary":9251,"mission":9252,"ĠGirls":9253,"Ġpuppet":9254,"Ġcasual":9255,"Ġwrestling":9256,"SPOILER":9257,"Ġtires":9258,"isand":9259,"Ġmudd":9260,"oral":9261,"ĠIan":9262,"Ġego":9263,"ĠTalk":9264,"ĠMi":9265,"ĠHung":9266,"ĠRuth":9267,"ĠEver":9268,"odge":9269,"Ġenemies":9270,"Ġovert":9271,"Ġshortly":9272,"Ġforms":9273,"Ġsnakes":9274,"Ġconstructed":9275,"Ġruins":9276,"Ġstrikes":9277,"ĠHamilton":9278,"Ġblockbuster":9279,"Ġunintentional":9280,"Ġconsistently":9281,"Ġmiserable":9282,"ulsive":9283,"Ġcannibal":9284,"Ġrobbery":9285,"ĠTurner":9286,"ĠCurtis":9287,"ĠPrincess":9288,"Please":9289,"Ġtame":9290,"Ġow":9291,"llo":9292,"verted":9293,"adine":9294,"ĠBush":9295,"ĠBUT":9296,"ĠCong":9297,"eling":9298,"olor":9299,"ĠFX":9300,"cio":9301,"forms":9302,"Ġguitar":9303,"Ġbless":9304,"Ġpray":9305,"Ġmaintain":9306,"Ġcopies":9307,"ĠMario":9308,"Ġsmaller":9309,"ĠMyers":9310,"Ġterrorists":9311,"Ġeighties":9312,"Ġdespair":9313,"Ġwrapped":9314,"Ġwannabe":9315,"Ġinvisible":9316,"Ġears":9317,"Ġstellar":9318,"ĠBourne":9319,"ĠLum":9320,"ĠFalk":9321,"ĠGrey":9322,"Ġjustify":9323,"Ġagrees":9324,"izations":9325,"Ġcheating":9326,"Ġrelent":9327,"ggy":9328,"Ġ35":9329,"fined":9330,"ribute":9331,"sycho":9332,"Ġcurs":9333,"ĠDamme":9334,"Ġfinancial":9335,"ĠVegas":9336,"ĠFrost":9337,"La":9338,"iour":9339,"lon":9340,"Ġwine":9341,"Ġhates":9342,"ĠCox":9343,"ĠWAS":9344,"Ġscores":9345,"Ġexotic":9346,"Ġexhib":9347,"Ġuneven":9348,"Ġworkers":9349,"ensions":9350,"then":9351,"Ġinstr":9352,"Ġglor":9353,"lands":9354,"Ġdetect":9355,"Ġfailing":9356,"Ġconvincingly":9357,"Ġresponsibility":9358,"Ġfooled":9359,"Ġurge":9360,"Ġburning":9361,"Ġdefeat":9362,"Ġarchite":9363,"Ġpurchase":9364,"Ġdynamic":9365,"Ġirrele":9366,"ploitation":9367,"Dan":9368,"burn":9369,"master":9370,"Ġtail":9371,"Ġpale":9372,"ĠTrom":9373,"ĠMacy":9374,"ĠMartha":9375,"ĠHack":9376,"Ġjazz":9377,"ĠEventually":9378,"ighty":9379,"Ġloads":9380,"ĠChase":9381,"Ġawe":9382,"Ġgrotes":9383,"Ġsettle":9384,"Ġcomposed":9385,"ĠShaw":9386,"Ġmonolog":9387,"Ġhomeless":9388,"ĠUnless":9389,"okey":9390,"Ġconsiderable":9391,"Ġsimilarities":9392,"Ġillness":9393,"Ġutil":9394,"Ġkicked":9395,"ĠStevens":9396,"Ġstyles":9397,"Ġteaching":9398,"Ġemphasis":9399,"ĠScarlett":9400,"Ġwebsite":9401,",,":9402,"Peter":9403,"fle":9404,"Ġboun":9405,"Ġinane":9406,"Ġech":9407,"Ġrebell":9408,"ĠBab":9409,"Ġshine":9410,"ĠPR":9411,"ĠLin":9412,"Ġunoriginal":9413,"Ġendings":9414,"perfect":9415,"azaki":9416,"white":9417,"Ġrooms":9418,"Ġadvise":9419,"Ġexploit":9420,"Ġcrucial":9421,"ĠNorris":9422,"Ġresemblance":9423,"ĠEva":9424,"Ġalternative":9425,"Ġbottle":9426,"ĠGREAT":9427,"90":9428,"Bad":9429,"Or":9430,"gle":9431,"gling":9432,"Ġtank":9433,"Ġsouth":9434,"Ġdiamond":9435,"Ġgro":9436,"Ġgest":9437,"leading":9438,"ĠApart":9439,"ĠSyl":9440,"ĠSullivan":9441,"ĠBak":9442,"ĠBand":9443,"ĠCagney":9444,"Ġsuited":9445,"ĠRita":9446,"Ġprops":9447,"ĠEp":9448,"Ġshelf":9449,"assed":9450,"ĠViv":9451,"ĠUN":9452,"Ġresur":9453,"Ġenjoys":9454,"Ġuseful":9455,"Ġexcruciating":9456,"ossibly":9457,"ivalent":9458,"Ġsurvived":9459,"Ġregardless":9460,"Ġbeneath":9461,"ĠREAL":9462,"Ġhence":9463,"ĠWhether":9464,"ĠInternational":9465,"ĠFlorida":9466,"Ġadequate":9467,"Ġalbum":9468,"Ġnervous":9469,"Ġsab":9470,"ĠCold":9471,"ĠFall":9472,"Ġintim":9473,"about":9474,"Ġdisplayed":9475,"Ġuser":9476,"Ġaggress":9477,"Ġblur":9478,"izable":9479,"Ġnevertheless":9480,"ĠStooges":9481,"Ġtrained":9482,"Ġinstit":9483,"oked":9484,"Ġprompt":9485,"Ġsilence":9486,"Ġrecording":9487,"ĠProfess":9488,"Ġcontrary":9489,"Ġpassionate":9490,"Ġaccompanied":9491,"William":9492,"Ġtransformation":9493,"(..":9494,"Ġdys":9495,"Ġstabb":9496,"pel":9497,"Ġplausible":9498,"ĠPy":9499,"ĠRE":9500,"ĠFant":9501,"These":9502,"ĠKer":9503,"nered":9504,"Ġamuse":9505,"Ġtends":9506,"Ġhorrifying":9507,"ĠState":9508,"Ġconscious":9509,"ographed":9510,"Ġcraw":9511,"Ġmentioning":9512,"Ġtransp":9513,"Ġsnake":9514,"Ġcinematographer":9515,"ĠKeith":9516,"Ġspecifically":9517,"ĠMuslim":9518,"Ġvulgar":9519,"Ġwig":9520,"Ġfo":9521,"Ġbears":9522,"Ġstress":9523,"Ġanx":9524,"ĠSay":9525,"ĠMason":9526,"ĠCrow":9527,"cking":9528,"ĠWard":9529,"antom":9530,"ĠPam":9531,"Ġorchest":9532,"ĠGand":9533,"aux":9534,"ĠNice":9535,"Ġpartly":9536,"Ġcharacteristic":9537,"ĠStu":9538,"Ġdownhill":9539,"annels":9540,"Ġlackl":9541,"Ġcreativity":9542,"Ġpainted":9543,"Ġmasterful":9544,"Ġpotentially":9545,"Ġblew":9546,"Ġarrived":9547,"ĠAdams":9548,"ĠElli":9549,"ĠNicole":9550,"ĠChildren":9551,"Ġoverwhelming":9552,"ifferent":9553,"ĠGarbo":9554,"Many":9555,"bidden":9556,"Ġ[":9557,"Ġtaught":9558,"Ġsits":9559,"ieve":9560,"ĠAw":9561,"amera":9562,"ĠSong":9563,"ĠSound":9564,"Ġexter":9565,"Ġouts":9566,"ĠKr":9567,"pled":9568,"Ġcliche":9569,"ĠHey":9570,"Ġsubplots":9571,"ĠSheriff":9572,"Ġabsent":9573,"Ġmonkey":9574,"Ġdeveloping":9575,"Ġtrees":9576,"Ġbrutally":9577,"Ġpersu":9578,"Ġsplatter":9579,"Ġdisappeared":9580,"Ġhideous":9581,"Ġcompanion":9582,"ĠFrancisco":9583,"Ġdinosaurs":9584,"bsolutely":9585,"..<":9586,"cult":9587,"wind":9588,"Ġaid":9589,"Ġlav":9590,"ĠTimes":9591,"Ġstark":9592,"amber":9593,"ĠSing":9594,"ĠMount":9595,"ĠDawn":9596,"antee":9597,"ĠRandy":9598,"ĠRoche":9599,"ĠLuck":9600,"ĠGos":9601,"Ġoverrated":9602,"izard":9603,"Ġcheated":9604,"Ġhelpless":9605,"Ġportion":9606,"umentary":9607,"Ġfocusing":9608,"ĠStreisand":9609,"Ġdrops":9610,"Ġprogresses":9611,"Ġdivorce":9612,"ĠAlfred":9613,"Ġphilosophical":9614,"free":9615,"rome":9616,"ori":9617,"Ġstaring":9618,"ceived":9619,"ĠAmy":9620,"ĠBus":9621,"ĠHist":9622,"ĠDoll":9623,"icker":9624,"tends":9625,"Ġdirects":9626,"Ġparties":9627,"Ġtea":9628,"Ġunderlying":9629,"Ġclasses":9630,"Ġdistingu":9631,"Ġguessed":9632,"Ġparan":9633,"ARD":9634,"Ġcampa":9635,"Ġwrites":9636,"Ġunsatisf":9637,"ropriately":9638,"worthy":9639,"Ġhench":9640,"ĠNicholson":9641,"Ġnostalgia":9642,"ĠMargaret":9643,"Ġdeliberately":9644,"onsidering":9645,"Ġcitizens":9646,"\"!":9647,"40":9648,"funny":9649,"attered":9650,"oured":9651,"Ġhouses":9652,"Ġdating":9653,"Ġease":9654,"ĠMade":9655,"ĠMeg":9656,"Ġchased":9657,"ĠWid":9658,"ĠDirty":9659,"Ġje":9660,"Ġdoct":9661,"antis":9662,"ĠGib":9663,"Ġprec":9664,"Ġadorable":9665,"Ġflies":9666,"Ġcontained":9667,"everal":9668,"ivable":9669,"Ġresort":9670,"Ġcouples":9671,"Ġstrang":9672,"ksh":9673,"owski":9674,"Ġreflection":9675,"ĠDavies":9676,"193":9677,"Ġhilariously":9678,"Ġ2004":9679,"Ġpriv":9680,"headed":9681,"club":9682,"ĠGraham":9683,"spector":9684,"Ġastron":9685,"ĠHamlet":9686,"ĠStrange":9687,"Ġtroubles":9688,"Ġadvertising":9689,"Ġglasses":9690,"Ġjournalist":9691,"Ġabysmal":9692,"Ġingredients":9693,"ĠCassavetes":9694,"AST":9695,"Can":9696,"gate":9697,"reet":9698,"Ġwished":9699,"atics":9700,"Ġthumbs":9701,"ĠTerry":9702,"Ġheat":9703,"ooby":9704,"urance":9705,"Ġshake":9706,"pered":9707,"Ġintr":9708,"ĠNiro":9709,"Ġleague":9710,"Ġupl":9711,"pera":9712,"Ġblowing":9713,"Ġdesired":9714,"Ġinterrupt":9715,"Ġtreats":9716,"Ġillogical":9717,"Ġgangsters":9718,"Ġpractice":9719,"ĠYear":9720,"ĠYears":9721,"ĠGarfield":9722,"Ġunderstated":9723,"Ġformulaic":9724,"Ġproceeds":9725,"Ġearned":9726,"ĠCarrie":9727,"Ġguests":9728,"Ġliberal":9729,"Ġhelicopter":9730,"Ġirrelevant":9731,"Go":9732,"fu":9733,"faced":9734,"Ġtad":9735,"Ġsust":9736,"Ġsouthern":9737,"rer":9738,"rell":9739,"Ġwore":9740,"eric":9741,"Ġegg":9742,"Ġstir":9743,"Ġstilted":9744,"ĠAge":9745,"ĠCuster":9746,"Ġchannels":9747,"Ġseeks":9748,"Ġendure":9749,"Ġpretending":9750,"onto":9751,"phant":9752,"eryl":9753,"ĠAtt":9754,"ugust":9755,"ĠMcK":9756,"Ġmountains":9757,"Ġtranslation":9758,"Ġeducation":9759,"Ġfundament":9760,"Ġexchange":9761,"Ġvibr":9762,"Frank":9763,"ĠMiyazaki":9764,"Ġriveting":9765,"ĠShirley":9766,"ĠTroma":9767,"99":9768,"House":9769,"Pro":9770,"Spe":9771,"bird":9772,"name":9773,"was":9774,"icism":9775,"Ġwhim":9776,"ĠSP":9777,"thriller":9778,"Ġarc":9779,"acies":9780,"Ġpoetic":9781,"ĠSheen":9782,"ĠAside":9783,"Ġnightmares":9784,"ĠJustin":9785,"Ġsuggested":9786,"Ġconditions":9787,"ylan":9788,"Ġsuitable":9789,"ĠRobinson":9790,"Ġpuppets":9791,"Ġprincipal":9792,"Ġrendition":9793,"ĠRadio":9794,"ĠUltim":9795,"Ġunsettling":9796,"zing":9797,"Ġfought":9798,"Ġfighter":9799,"ĠMTV":9800,"arts":9801,"esty":9802,"oples":9803,"ousing":9804,"andon":9805,"Ġram":9806,"Ġintimate":9807,"anges":9808,"Ġattitudes":9809,"Ġsincere":9810,"Ġschlock":9811,"ierre":9812,"ĠMystery":9813,"ricia":9814,"ĠEdgar":9815,"ĠProt":9816,"Ġrolled":9817,"Ġmatches":9818,"conscious":9819,"Ġguarantee":9820,"George":9821,"Ang":9822,"dri":9823,"human":9824,"pre":9825,"Ġsung":9826,"Ġwis":9827,"Ġce":9828,"Ġpad":9829,"Ġdivers":9830,"Ġya":9831,"ĠMiles":9832,"Ġlip":9833,"ĠCertainly":9834,"ĠHop":9835,"ĠHills":9836,"Ġplat":9837,"Ġalter":9838,"quel":9839,"ĠGore":9840,"Ġtrashy":9841,"arson":9842,"lik":9843,"Ġalongside":9844,"ĠMarc":9845,"Ġpatients":9846,"Ġinferior":9847,"Ġsleaze":9848,"Ġundoubtedly":9849,"ĠExcept":9850,"Ġembarrassment":9851,"strong":9852,"Being":9853,"ĠWatson":9854,"Ġfrustration":9855,"Ġborrowed":9856,"Second":9857,"ĠHuston":9858,"ĠCrawford":9859,"ĠBaldwin":9860,",<":9861,"IP":9862,"Love":9863,"Ph":9864,"isons":9865,"Ġmile":9866,"Ġreck":9867,"Ġyelling":9868,"ĠBette":9869,"ffic":9870,"Ġrecyc":9871,"Ġlaughably":9872,"Ġphrase":9873,"ORE":9874,"ĠPerry":9875,"Ġavoided":9876,"Ġprisoner":9877,"Ġdrawing":9878,"Ġjoined":9879,"Ġcorruption":9880,"ĠCarradine":9881,"ĠRemember":9882,"Ġwounded":9883,"ĠKarloff":9884,"both":9885,"pion":9886,"prise":9887,"Ġlun":9888,"ĠTown":9889,"Ġforty":9890,"ĠAbb":9891,"ĠBa":9892,"ĠBible":9893,"Ġlips":9894,"ĠRating":9895,"Ġritual":9896,"ĠNorm":9897,"Ġmankind":9898,"ĠKap":9899,"arer":9900,"Ġremained":9901,"ĠBronson":9902,"venture":9903,"Ġpromises":9904,"Ġweakest":9905,"ompson":9906,"ĠNOTHING":9907,"ĠPrice":9908,"ĠWoods":9909,"ĠBrazil":9910,"Ġcontrad":9911,"ĠCorman":9912,"Ġmarketing":9913,"Ġoptim":9914,"Ġrevolutionary":9915,"Ġconceived":9916,"ĠTyler":9917,"ĠLemmon":9918,"Ġinappropriate":9919,"Ġgrotesque":9920,"Bas":9921,"Never":9922,"len":9923,"lam":9924,"Ġtopless":9925,"ĠTry":9926,"ĠAff":9927,"ĠSouthern":9928,"ĠBow":9929,"ĠBuster":9930,"ĠRead":9931,"ĠLine":9932,"ĠLOT":9933,"ĠEli":9934,"aping":9935,"Ġadul":9936,"Ġrage":9937,"Ġcompens":9938,"Ġcomparing":9939,"Ġpossibilities":9940,"uffy":9941,"ypse":9942,"ysis":9943,"ĠElvis":9944,"Ġtrailers":9945,"Ġdimensional":9946,"Ġcontempl":9947,"Ġhints":9948,"Ġmotivations":9949,"Ġensues":9950,"Ġchallenging":9951,"Ġninja":9952,"ĠCastle":9953,"ocalypse":9954,"hetti":9955,"charact":9956,"fan":9957,"hile":9958,"maker":9959,"iners":9960,"Ġmund":9961,"orse":9962,"ĠTam":9963,"idy":9964,"ĠMas":9965,"ĠHan":9966,"agues":9967,"astically":9968,"obs":9969,"ĠUnt":9970,"Ġcoast":9971,"ĠSpain":9972,"Ġlowest":9973,"ĠScot":9974,"ĠScream":9975,"Ġbehave":9976,"ĠMarion":9977,"Ġcapturing":9978,"Ġbackgrounds":9979,"Ġcondem":9980,"THING":9981,"Ġremarkably":9982,"ĠDoug":9983,"ĠRoad":9984,"Ġbeliefs":9985,"plicity":9986,"ixties":9987,"Ġincompetent":9988,"ĠIraq":9989,"ALL":9990,"Me":9991,"da":9992,"Ġ_":9993,"Ġtact":9994,"Ġsappy":9995,"Ġdile":9996,"imagin":9997,"urai":9998,"ersh":9999,"ĠDaw":10000,"Ġplod":10001,"ĠJoy":10002,"ellig":10003,"ĠVar":10004,"Ġslave":10005,"Ġtripe":10006,"Ġworlds":10007,"ĠThompson":10008,"ĠSpir":10009,"Ġtransition":10010,"Ġsenses":10011,"Ġpurposes":10012,"Ġclosest":10013,"Ġdesperation":10014,"Ġlegit":10015,"Ġlegal":10016,"Death":10017,"Ġwarmth":10018,"Ġhypnot":10019,"Ġfrequent":10020,"Ġcustom":10021,"Ġsurvivors":10022,"Ġjewel":10023,")...":10024,"born":10025,"break":10026,"dis":10027,"esc":10028,"Ġpushing":10029,"ĠAuss":10030,"ĠMiddle":10031,"ĠCa":10032,"ĠHoll":10033,"ifi":10034,"Ġexquis":10035,"Ġalas":10036,"Ġoutfit":10037,"Ġconvent":10038,"ĠNobody":10039,"ints":10040,"Ġflop":10041,"!!<":10042,"!!!<":10043,"Ġpride":10044,"Ġnewly":10045,"Ġrelation":10046,"ĠShort":10047,"Ġunderstandable":10048,"Ġwaited":10049,"Ġpops":10050,"check":10051,"engers":10052,"Ġauthority":10053,"Ġbuffs":10054,"Ġicon":10055,"ĠWaters":10056,"Arthur":10057,"ĠCommun":10058,"Ġfloating":10059,"Ġreunion":10060,"Ġnomination":10061,"Ġbonus":10062,"ĠFelix":10063,"Ġartificial":10064,"rin":10065,"will":10066,"Ġ{":10067,"inch":10068,"Ġfaster":10069,"Ġpub":10070,"arity":10071,"Ġgh":10072,"Ġren":10073,"sect":10074,"ĠSet":10075,"ĠSupp":10076,"ĠWalt":10077,"ifully":10078,"essa":10079,"ĠFortunately":10080,"Ġspoke":10081,"Ġawhile":10082,"ĠAli":10083,"Ġsimult":10084,"Ġviewings":10085,"Ġtravest":10086,"Ġbuck":10087,"Ġcareful":10088,"ĠNewman":10089,"ATE":10090,"Ġsolution":10091,"Ġphoto":10092,"Ġpopularity":10093,"Ġunexpl":10094,"Ġbehaviour":10095,"ĠJews":10096,"Ġcandid":10097,"Ġvulnerable":10098,"Ġpresumably":10099,"Ġdysfun":10100,"15":10101,"creen":10102,"itable":10103,"Ġbanned":10104,"Ġthugs":10105,"iceless":10106,"ĠSN":10107,"ripp":10108,"ĠMorm":10109,"ĠLive":10110,"Ġdism":10111,"Ġflood":10112,"ensical":10113,"Ġinstinct":10114,"ixon":10115,"Ġrefuge":10116,"Ġ2007":10117,"Ġclaimed":10118,"Ġhyper":10119,"Ġfaults":10120,"Ġeaten":10121,"Ġminimum":10122,"Ġpurchased":10123,"Ġswimming":10124,"Ġnostalgic":10125,"ĠThroughout":10126,"Ġincorpor":10127,"Ġhesit":10128,"Ġassemb":10129,"Did":10130,"hist":10131,"hum":10132,"Ġaka":10133,"Ġcode":10134,"oto":10135,"ala":10136,"stage":10137,"ayed":10138,"ĠDri":10139,"ĠDomin":10140,"unts":10141,"ĠFinal":10142,"Ġintric":10143,"Ġconqu":10144,"ĠOp":10145,"Ġshowcase":10146,"ĠKn":10147,"awful":10148,"Ġgranted":10149,"Ġtribe":10150,"Ġpersons":10151,"annon":10152,"Ġglim":10153,"ĠLeigh":10154,"Ġequivalent":10155,"Ġappreciation":10156,"overn":10157,"Ġclimactic":10158,"Ġundert":10159,"Ġyesterday":10160,"Ġdepicting":10161,"ĠCraven":10162,"ĠJeffrey":10163,"Ġcomposer":10164,"oneliness":10165,"ĠBoris":10166,"Ġvaguely":10167,"austroph":10168,"ĠBullock":10169,"ĠPhillip":10170,"Ġdreary":10171,"Ġcampaign":10172,"big":10173,"based":10174,"mill":10175,"make":10176,"Ã¨":10177,"Ġaest":10178,"Ġwars":10179,"Ġwishing":10180,"Ġbumbling":10181,"Ġcens":10182,"Ġdirt":10183,"Ġindu":10184,"ilight":10185,"Ġmode":10186,"Ġrein":10187,"ĠBay":10188,"ĠCart":10189,"Ġath":10190,"Ġscope":10191,"Ġdod":10192,"Ġvig":10193,"ĠLy":10194,"Ġgreatness":10195,"Ġfunction":10196,"ccer":10197,"arker":10198,"ionship":10199,"Ġperforms":10200,"Ġsuperhero":10201,"Ġpassable":10202,"ĠHarvey":10203,"shine":10204,"ĠGranted":10205,"Ġengage":10206,"Ġcorrectly":10207,"ĠKids":10208,"ĠImagine":10209,"Ġpitiful":10210,"iseries":10211,"Ġseventies":10212,"Ġsafety":10213,"ĠPredator":10214,"Last":10215,"bet":10216,"did":10217,"fly":10218,"front":10219,"uated":10220,"yre":10221,"Ġapt":10222,"Ġcake":10223,"ctic":10224,"Ġwhis":10225,"cha":10226,"ĠCode":10227,"Ġshod":10228,"ĠLar":10229,"Ġcancer":10230,"Ġarmed":10231,"Ġpriceless":10232,"Ġrabb":10233,"Ġmusicians":10234,"asha":10235,"Ġreads":10236,"Ġversus":10237,"ĠDeep":10238,"Ġphony":10239,"ĠChristie":10240,"ĠIsab":10241,"Ġwinter":10242,"Ġfuturistic":10243,"Ġlands":10244,"Ġcleverly":10245,"ervice":10246,"Ġhistorically":10247,"Ġbedroom":10248,"Only":10249,"ĠIran":10250,"Ġarrival":10251,"Ġfoolish":10252,"Ġsubstit":10253,"ĠValent":10254,"Ġsevere":10255,"Ġignorant":10256,"Ġexecutive":10257,"Ġelegant":10258,"ĠMarshall":10259,"Ġtiresome":10260,"His":10261,"Ġbaff":10262,"ĠSPOILER":10263,"robe":10264,"Ġnep":10265,"ĠWomen":10266,"acts":10267,"again":10268,"ested":10269,"Ġworn":10270,"ĠRO":10271,"ĠRings":10272,"Ġrul":10273,"ĠFish":10274,"inding":10275,"acks":10276,"ookie":10277,"Ġthru":10278,"Ġteaches":10279,"pecting":10280,"ĠVo":10281,"Ġminiseries":10282,"ĠSpock":10283,"ĠScr":10284,"Ġreport":10285,"Ġrefused":10286,"ĠWarren":10287,"volution":10288,"Ġintroduce":10289,"ettes":10290,"Ġjudging":10291,"haust":10292,"Ġdefense":10293,"ĠHammer":10294,"ĠFoxx":10295,"anoia":10296,"ĠPictures":10297,"Ġtunes":10298,"ĠLatin":10299,"Ġgifted":10300,"ĠJordan":10301,"Her":10302,"Sure":10303,"fast":10304,"numb":10305,"vation":10306,"Ġaunt":10307,"Ġwow":10308,"Ġfacing":10309,"Ġmouse":10310,"Ġmuseum":10311,"Ġcos":10312,"ĠAM":10313,"ĠActor":10314,"ldom":10315,"ĠDiv":10316,"ĠDee":10317,"Ġrude":10318,"ference":10319,"inds":10320,"ourney":10321,"acity":10322,"acles":10323,"urning":10324,"Ġsurg":10325,"azing":10326,"ocaust":10327,"Ġrelatives":10328,"Ġleaders":10329,"retched":10330,"ĠMcD":10331,"Ġpatience":10332,"ARN":10333,"udden":10334,"Ġincomprehensible":10335,"ĠNYC":10336,".(":10337,"Im":10338,"Since":10339,"bu":10340,"eff":10341,"gers":10342,"reens":10343,"Ġponder":10344,"ĠAugust":10345,"ĠHalf":10346,"Ġsched":10347,"aghetti":10348,"ĠEither":10349,"ĠKh":10350,"apers":10351,"ĠAss":10352,"Ġlasted":10353,"Ġsenseless":10354,"Ġsecondary":10355,"amped":10356,"Ġdefined":10357,"Ġgenerations":10358,"Ġindic":10359,"Ġvaluable":10360,"ramer":10361,"Ġadaptations":10362,"Ġ1999":10363,"Ġtastes":10364,"Ġwildly":10365,"Ġwandering":10366,"ĠCharlotte":10367,"ĠVenice":10368,"Ġcorporate":10369,"ĠCharacters":10370,"Ġunhappy":10371,"provoking":10372,"mun":10373,"oad":10374,"occ":10375,"Ġties":10376,"Ġori":10377,"Ġbang":10378,"Ġloneliness":10379,"Ġbell":10380,"Ġrely":10381,"ĠWag":10382,"ĠDON":10383,"ĠPick":10384,"ĠGus":10385,"ĠGOOD":10386,"Ġprol":10387,"ĠExt":10388,"ĠKl":10389,"Ġawake":10390,"ĠStars":10391,"issy":10392,"Ġglorious":10393,"ĠBlade":10394,"Ġexpressed":10395,"INE":10396,"Ġsuspicious":10397,"Ġpromised":10398,"Ġdancers":10399,"ĠNightmare":10400,"ĠProject":10401,"Ġsatisfy":10402,"ĠSeries":10403,"Ġ*****":10404,"ĠRomero":10405,"Ġpressure":10406,"Ġintegrity":10407,"Brazil":10408,"Ġmundane":10409,"12":10410,"Big":10411,"HH":10412,"vial":10413,"Ġfi":10414,"Ġmax":10415,"ench":10416,"Ġlam":10417,"ĠRanger":10418,"Ġrush":10419,"ĠNov":10420,"ĠNathan":10421,"odile":10422,"Ġoveracting":10423,"Ġpartners":10424,"Ġflag":10425,"Ġraises":10426,"Ġsounding":10427,"developed":10428,"Ġacid":10429,"Ġskate":10430,"ĠWells":10431,"Ġpurs":10432,"ĠHarold":10433,"ĠMcL":10434,"Ġconstruction":10435,"Ġangst":10436,"OUS":10437,"Ġunden":10438,"Ġrocket":10439,"Ġproperty":10440,"Ġrepresented":10441,"ĠAnnie":10442,"Ġdimension":10443,"ĠSeeing":10444,"ĠErnest":10445,"Ġalcoholic":10446,"Ġrotten":10447,"ĠNolan":10448,"Ġglobal":10449,"Ġtravesty":10450,"Ali":10451,"IST":10452,"dra":10453,"har":10454,"talk":10455,"Ġwarr":10456,"Ġmate":10457,"Ġcul":10458,"lex":10459,"ĠSaw":10460,"ĠSold":10461,"ĠSnow":10462,"ĠTheater":10463,"rob":10464,"ĠCool":10465,"Ġshameless":10466,"ĠPan":10467,"ĠPay":10468,"ĠKent":10469,"ĠKaz":10470,"Ġclaustroph":10471,"Ġprev":10472,"enson":10473,"upert":10474,"ĠThus":10475,"Ġ3000":10476,"ollowing":10477,"Ġglamor":10478,"ĠBeyond":10479,"ainsaw":10480,"Ġheartbreaking":10481,"ĠConf":10482,"ushi":10483,"Ġlimits":10484,"ĠQuaid":10485,"Ġcompelled":10486,"Ġexceptionally":10487,"innie":10488,"Ġdiscovering":10489,"ĠJesse":10490,"Ġstinks":10491,"Ġnerd":10492,"Ġeducational":10493,"Watching":10494,"Ġmethods":10495,"IF":10496,"gom":10497,"po":10498,"pol":10499,"hears":10500,"Ġwax":10501,"Ġloos":10502,"ĠMY":10503,"ĠDutch":10504,"ession":10505,"Ġcommend":10506,"ĠPink":10507,"ĠRud":10508,"ĠLiz":10509,"ĠGiven":10510,"Ġmeand":10511,"Ġtroops":10512,"Ġreson":10513,"ission":10514,"lied":10515,"rilliant":10516,"Ġromp":10517,"Ġresulting":10518,"ĠPlot":10519,"Ġcomplaining":10520,"ĠNeither":10521,"Ġchecked":10522,"Ġliterature":10523,"ĠScottish":10524,"Ġreceives":10525,"Ġdisgrace":10526,"Ġpackage":10527,"ĠBarney":10528,"Ġdisappears":10529,"ĠSpacey":10530,"Ġhurts":10531,"Ġapplaud":10532,"Ġethnic":10533,"Ġdisliked":10534,"Mart":10535,"Red":10536,"UE":10537,"uz":10538,"Ã¶":10539,"iti":10540,"Ġdances":10541,"Ġreel":10542,"Ġanaly":10543,"ĠAbr":10544,"rock":10545,"rien":10546,"ĠDylan":10547,"Ġjer":10548,"Ġjaw":10549,"ĠRitter":10550,"ĠLone":10551,"Ġorphan":10552,"ĠGere":10553,"ĠJune":10554,"Ġunit":10555,"Ġenlight":10556,"Ġquit":10557,"Ġdish":10558,"Ġworker":10559,"angel":10560,"Ġtrivial":10561,"annah":10562,"Ġreleases":10563,"Ġmenace":10564,"ĠSea":10565,"Ġ2003":10566,"Ġstraightforward":10567,"Ġcombine":10568,"Ġbands":10569,"Ġcatchy":10570,"ĠParty":10571,"Ġtemper":10572,"Jul":10573,"inity":10574,"inations":10575,"Ġwides":10576,"Ġhokey":10577,"omn":10578,"Ġmoody":10579,"Ġstale":10580,"eta":10581,"ĠSab":10582,"ĠBR":10583,"ĠHomer":10584,"Ġcho":10585,"ĠWorth":10586,"ifetime":10587,"Ġplight":10588,"ĠPin":10589,"ĠPie":10590,"ĠRh":10591,"Ġunimagin":10592,"Ġentr":10593,"Ġrecover":10594,"Ġsmell":10595,"Ġletters":10596,"otta":10597,"Ġmessed":10598,"ĠSeven":10599,"Ġcloset":10600,"Ġmisery":10601,"Ġcenters":10602,"Ġantagon":10603,"Ġagenda":10604,"Ġspirits":10605,"Ġ1995":10606,"Ġconflicts":10607,"Ġreaching":10608,"ĠCentral":10609,"Ġmanipulative":10610,"Ġchallenged":10611,"Ġhalluc":10612,"Ġactivities":10613,"Ġcigaret":10614,"onymous":10615,"Ġwacky":10616,"ĠProfessor":10617,"AP":10618,"SI":10619,"zer":10620,"Ġfingers":10621,"Ġlately":10622,"Ġanth":10623,"ĠSave":10624,"ĠBugs":10625,"osing":10626,"ĠDuck":10627,"Ġvon":10628,"thm":10629,"opic":10630,"Ġdeaf":10631,"ĠPur":10632,"ĠRoth":10633,"ĠLie":10634,"Ġrant":10635,"ĠEis":10636,"igo":10637,"ĠKyle":10638,"Ġtwin":10639,"Ġrealizing":10640,"iley":10641,"ĠChamp":10642,"Ġrecon":10643,"Ġriot":10644,"Ġexploration":10645,"Ġheading":10646,"Ġedit":10647,"Ġvisible":10648,"Ġhousehold":10649,"ĠPeters":10650,"Ġmistress":10651,"Ġrespected":10652,"Ġquestionable":10653,"Ġboxing":10654,"ĠQuite":10655,"Ġfascinated":10656,"ĠTimothy":10657,"ĠONLY":10658,"Ġdresses":10659,"ructive":10660,"ĠEllen":10661,"Ġcounterpart":10662,"ĠBernard":10663,"Ġbetrayal":10664,"ĠWidmark":10665,"likable":10666,"gomery":10667,"UST":10668,"lined":10669,"uary":10670,"zilla":10671,"Ġsan":10672,"orney":10673,"Ġinherent":10674,"icable":10675,"Ġhabit":10676,"ĠHugh":10677,"ĠWel":10678,"ĠDig":10679,"Ġroof":10680,"ĠKay":10681,"Ġgrass":10682,"Ġhumble":10683,"Ġsmiling":10684,"Ġinvited":10685,"Ġdifferently":10686,"Ġexperiments":10687,"Ġparanoia":10688,"mpire":10689,"Ġphotos":10690,"ĠPete":10691,"ĠConrad":10692,"Ġpremiere":10693,"uries":10694,"ĠExcellent":10695,"ĠAfghan":10696,"ylum":10697,"ĠMurder":10698,"Ġobjects":10699,"Ġwidely":10700,"Ġaccomplish":10701,"Ġexperimental":10702,"itizen":10703,"ĠWorst":10704,"Ġseverely":10705,"ĠTurkish":10706,"Ġresources":10707,"bone":10708,"ji":10709,"rr":10710,"Ġgreed":10711,"ota":10712,"ĠAk":10713,"ĠWy":10714,"ĠDec":10715,"Ġexhaust":10716,"actors":10717,"olk":10718,"Ġrum":10719,"Ġordered":10720,"ĠJol":10721,"Ġshowdown":10722,"Ġcloud":10723,"Ġpreced":10724,"Ġamid":10725,"ĠTherefore":10726,"Ġsubl":10727,"Ġbasket":10728,"dys":10729,"Ġsweat":10730,"ĠPeck":10731,"Ġlanding":10732,"Ġoccasions":10733,"Ġmodest":10734,"Ġjumped":10735,"Ġsquare":10736,"Ġkicking":10737,"ĠSTAR":10738,"vira":10739,"Ġcelebrity":10740,"ĠSkip":10741,"ĠVirginia":10742,"Avoid":10743,"ĠRochester":10744,"Wr":10745,"rum":10746,"ueless":10747,"vi":10748,"Ġfog":10749,"ĠBud":10750,"ĠMake":10751,"Ġrings":10752,"ĠEst":10753,"Ġclip":10754,"Ġquotes":10755,"Ġawfully":10756,"Ġslice":10757,"Ġchess":10758,"issa":10759,"lix":10760,"aneous":10761,"ucker":10762,"Ġnights":10763,"Ġvisits":10764,"Ġassigned":10765,"Ġdefinition":10766,"Ġexceptions":10767,"Ġvalid":10768,"Ġbargain":10769,"ĠAustin":10770,"Ġcatching":10771,"Ġcomplexity":10772,"Ġobjective":10773,"ĠInterest":10774,"Ġenthusiasm":10775,"Ġpursuit":10776,"Ġexposition":10777,"Ġtonight":10778,"ĠClassic":10779,"Ġdentist":10780,"Ġsaga":10781,"Ġastronaut":10782,"ITH":10783,"Jim":10784,"mus":10785,"hell":10786,"Ġwolf":10787,"Ġmish":10788,"enger":10789,"icidal":10790,"Ġeats":10791,"ĠTan":10792,"ĠAaron":10793,"ĠMajor":10794,"ĠCher":10795,"aines":10796,"Ġabused":10797,"Ġabusive":10798,"ĠNBC":10799,"Ġunst":10800,"ĠEye":10801,"Ġclock":10802,"Ġpeak":10803,"Ġsimplicity":10804,"ĠJoel":10805,"ĠSha":10806,"ugene":10807,"guy":10808,"goers":10809,"Ġsecretly":10810,"Ġsensational":10811,"Ġtasteless":10812,"Ġmentions":10813,"Ġrobots":10814,"ĠDrake":10815,"ĠBerlin":10816,"AME":10817,"ĠBarrymore":10818,"ĠHartley":10819,"Ġexcessive":10820,"Ġsurfing":10821,"ĠBeautiful":10822,"Ġchooses":10823,"ĠTitanic":10824,"ĠFurthermore":10825,"Ġvengeance":10826,"ĠGabriel":10827,"Ġmuddled":10828,"Ġdoctors":10829,"Ġuplifting":10830,"ĠAussie":10831,"Ġsimultaneously":10832,"?'":10833,"AB":10834,"AW":10835,"Hollywood":10836,"Que":10837,"bi":10838,"rows":10839,"Ġfist":10840,"Ġbite":10841,"lli":10842,"Ġdud":10843,"Ġlic":10844,"Ġgam":10845,"Ġstream":10846,"ĠSeveral":10847,"riors":10848,"ĠMah":10849,"ravel":10850,"ĠCore":10851,"ĠHonestly":10852,"ĠHeston":10853,"Ġintentionally":10854,"ĠGone":10855,"ĠEyes":10856,"geon":10857,"ĠKin":10858,"erto":10859,"urned":10860,"Ġdesires":10861,"Ġcrush":10862,"Ġobst":10863,"ĠClay":10864,"ĠClaude":10865,"show":10866,"Ġmysteries":10867,"END":10868,"ĠColonel":10869,"Ġtracking":10870,"ĠBetter":10871,"ĠSarandon":10872,"Ġderanged":10873,"ĠMontgomery":10874,"Ġcompanies":10875,"Ġcomplaints":10876,"Ġalleged":10877,"heimer":10878,"Ġconservative":10879,"ĠBrooklyn":10880,"-)":10881,"Mur":10882,"drama":10883,"felt":10884,"hoe":10885,"mons":10886,"wan":10887,"Ġtent":10888,"Ġcripp":10889,"another":10890,"Ġinability":10891,"brow":10892,"ĠBIG":10893,"ĠME":10894,"ulations":10895,"ĠWATCH":10896,"emic":10897,"Ġrates":10898,"ĠFarre":10899,"indul":10900,"Ġfee":10901,"ourke":10902,"Ġrealm":10903,"wear":10904,"Ġrail":10905,"Ġsimilarly":10906,"Ġcomprom":10907,"Ġvisiting":10908,"Ġdemise":10909,"ĠColin":10910,"ĠMarty":10911,"ĠExp":10912,"ĠEnjoy":10913,"Ġpunishment":10914,"Ġprepare":10915,"ĠDickens":10916,"ĠMaggie":10917,"Ġdebate":10918,"Ġcivilization":10919,"Ġobliv":10920,"Ġharmless":10921,"ĠSEE":10922,"Ġneighbors":10923,"ĠBridges":10924,"ĠBettie":10925,"ĠWagner":10926,"Ġsublime":10927,"Rating":10928,"col":10929,"matic":10930,"power":10931,"uation":10932,"Ġtang":10933,"Ġbump":10934,"Ġdazz":10935,"Ġonline":10936,"Ġwashed":10937,"ĠSell":10938,"road":10939,"ĠCris":10940,"Ġshif":10941,"ĠFisher":10942,"Ġunaware":10943,"Ġshowc":10944,"Ġpeoples":10945,"Ġguards":10946,"Ġawa":10947,"anski":10948,"ĠStock":10949,"Ġ23":10950,"Ġmayhem":10951,"Ġinsanity":10952,"Ġmusician":10953,"Ġboom":10954,"alsh":10955,"umbo":10956,"arents":10957,"Ġdepression":10958,"Ġexcl":10959,"ĠScooby":10960,"ĠClaud":10961,"Ġbehold":10962,"Ġretired":10963,"Ġnamely":10964,"ĠCarmen":10965,"Ġmisleading":10966,"ributes":10967,"Ġpsychic":10968,"Ġnarrow":10969,"Ġcompliment":10970,"uppets":10971,"ĠSimp":10972,"ĠPatricia":10973,"Ġmasses":10974,"Ġaccurately":10975,"Ġaccuracy":10976,"Ġroller":10977,"Ġjoins":10978,"Ġwitnesses":10979,"Ġbiography":10980,"Ġnonsensical":10981,"ĠMagn":10982,"Ġchicken":10983,"ĠJudy":10984,"Ġflee":10985,"Ġsneak":10986,"Ġuniversal":10987,"ĠMachine":10988,"Ġprecisely":10989,"Title":10990,"ĠMiike":10991,"Ġwisdom":10992,"Ġnephew":10993,"ĠVoight":10994,"Em":10995,"Sim":10996,"dies":10997,"hot":10998,"ni":10999,"rings":11000,"xic":11001,"Ġcities":11002,"Ġgym":11003,"Ġ/>***":11004,"Ġrender":11005,"ĠHuman":11006,"Ġships":11007,"ulating":11008,"ĠWong":11009,"Ġsoccer":11010,"olate":11011,"ĠGame":11012,"ĠOs":11013,"Ġshed":11014,"irsty":11015,"Ġcrook":11016,"Ġcream":11017,"ĠThunder":11018,"spir":11019,"ĠZone":11020,"ĠLeo":11021,"Ġfemales":11022,"Ġprotest":11023,"OULD":11024,"Ġstunned":11025,"pendence":11026,"Ġimmediate":11027,"Ġsquad":11028,"Ġfashioned":11029,"Ġrandomly":11030,"ĠBelushi":11031,"Ġlengthy":11032,"ĠApril":11033,"ĠAntonio":11034,"Ġambiguous":11035,"ĠDalton":11036,"Ġfantasies":11037,"Ben":11038,"ca":11039,"Ġtv":11040,"inist":11041,"Ġwretched":11042,"ĠSoph":11043,"osis":11044,"ersed":11045,"actor":11046,"ĠFive":11047,"ĠGre":11048,"ĠGang":11049,"ĠNaturally":11050,"ĠOR":11051,"Ġ---":11052,"Ġdirections":11053,"Ġflair":11054,"bergh":11055,"ĠShah":11056,"Ġaddiction":11057,"Ġedition":11058,"notch":11059,"ĠHero":11060,"Ġdoubts":11061,"Ġadvanced":11062,"Ġbusinessman":11063,"Ġresemble":11064,"Ġdesigns":11065,"Ġconcepts":11066,"Ġremarks":11067,"ĠJudge":11068,"Ġconfrontation":11069,"Ġbanal":11070,"ĠDiana":11071,"Ġimprovement":11072,"Ġencourage":11073,"ĠPhillips":11074,"ĠReturn":11075,"Ġsupreme":11076,"Ġshouting":11077,"Super":11078,"urprisingly":11079,"ĠBlockbuster":11080,"Best":11081,"Sam":11082,"Yet":11083,"uate":11084,"racy":11085,"ĠHat":11086,"Ġchicks":11087,"ĠDall":11088,"istol":11089,"ando":11090,"ĠOrigin":11091,"Ġnoises":11092,"cip":11093,"apable":11094,"Ġimitation":11095,"Ġrecre":11096,"ĠUr":11097,"Ġinterests":11098,"Ġsmugg":11099,"Ġinvented":11100,"ĠShame":11101,"ĠThird":11102,"ĠBean":11103,"Ġexpand":11104,"Ġpassengers":11105,"Ġcomedians":11106,"claim":11107,"Ġrepeating":11108,"Ġcircle":11109,"Ġregarded":11110,"Ġchoreographed":11111,"Ġreferred":11112,"Ġpoliceman":11113,"Ġhippie":11114,"orcist":11115,"ĠStudios":11116,"Ġanalysis":11117,"Ġgimmick":11118,"Ġlackluster":11119,"ĠHistory":11120,"ĠSimpson":11121,"Gu":11122,"bable":11123,"Ġdarn":11124,"Ġlord":11125,"Ġstatic":11126,"amount":11127,"Ġsear":11128,"ĠMu":11129,"illian":11130,"ĠComb":11131,"ĠWalsh":11132,"Ġscreens":11133,"Ġdele":11134,"ĠLoy":11135,"ĠGle":11136,"Ġunle":11137,"Ġrealised":11138,"ĠHead":11139,"Ġowners":11140,"Ġappropriately":11141,"ĠShar":11142,"Ġassign":11143,"psons":11144,"offs":11145,"Ġsurviving":11146,"blood":11147,"Ġmachines":11148,"Ġseduct":11149,"Ġevolution":11150,"Ġunpredictable":11151,"ĠCrystal":11152,"Ġstumbled":11153,"ĠHughes":11154,"!'":11155,"!,":11156,"IV":11157,"oqu":11158,"yo":11159,"Ġmast":11160,"Ġgolf":11161,"Ġforcing":11162,"ĠAh":11163,"ĠSF":11164,"ĠMeryl":11165,"rain":11166,"Ġchat":11167,"Ġsus":11168,"agement":11169,"ĠLas":11170,"ption":11171,"abled":11172,"ĠVin":11173,"raph":11174,"Ġgrate":11175,"Ġdecor":11176,"ften":11177,"Ġcompleted":11178,"xton":11179,"Ġrecommendation":11180,"phone":11181,"Ġdramat":11182,"Ġedgy":11183,"Ġexped":11184,"Ġlively":11185,"Ġdemean":11186,"Ġtowns":11187,"iker":11188,"mmm":11189,"Ġ2002":11190,"ĠPearl":11191,"IDS":11192,"Ġsubstant":11193,"Ġsymbolic":11194,"Ġbiased":11195,"special":11196,"Ġalternate":11197,"Ġlandscapes":11198,"Ġlifted":11199,"ĠUsually":11200,"ĠWonderful":11201,"Ġinteractions":11202,"Ġsilliness":11203,"ĠâĢĵ":11204,"ĠRobbins":11205,"ĠDawson":11206,")!":11207,"filled":11208,"mber":11209,"Ġ+":11210,"rehe":11211,"Ġfurn":11212,"Ġcaut":11213,"Ġpages":11214,"icy":11215,"Ġnomin":11216,"ĠBenn":11217,"ĠMind":11218,"ĠHOR":11219,"through":11220,"Ġdegr":11221,"astard":11222,"orthern":11223,"Ġloaded":11224,"Ġarist":11225,"ĠStall":11226,"Ġunderwater":11227,"olden":11228,"Ġrestored":11229,".......":11230,"Ġnightclub":11231,"Ġskull":11232,"Ġcounts":11233,"ĠHerz":11234,"Ġsubjected":11235,"Ġsigned":11236,"Ġvein":11237,"ĠAngels":11238,"Ġgems":11239,"particularly":11240,"Ġteachers":11241,"probably":11242,"Ġquietly":11243,"Ġtacky":11244,"Ġdistribution":11245,"Ġcoincidence":11246,"Ġinjured":11247,"ĠRepublic":11248,"Ġchapter":11249,"Ġmotorcy":11250,"ĠCourt":11251,"Fl":11252,"HA":11253,"Movie":11254,"bust":11255,"wyn":11256,"Ġmap":11257,"anim":11258,"uters":11259,"Ġshares":11260,"osition":11261,"Ġatroc":11262,"ĠDoc":11263,"oler":11264,"ĠPut":11265,"uming":11266,"Ġunravel":11267,"Ġpositively":11268,"Ġclueless":11269,"assy":11270,"Ġamused":11271,"Ġspring":11272,"ĠVera":11273,"ĠValley":11274,"ĠInter":11275,"ĠJoey":11276,"neyed":11277,"identally":11278,"Ġcreator":11279,"ĠClose":11280,"Ġgenerated":11281,"Ġgrainy":11282,"Ġportrayals":11283,"ĠDonna":11284,"Ġzoom":11285,"Ġparad":11286,"Ġstranded":11287,"volta":11288,"Ġprize":11289,"Ġcontrolled":11290,"Ġ1972":11291,"Ġmerits":11292,"ifties":11293,"Ġprimitive":11294,"Ġsummar":11295,"ĠHarrison":11296,"Ġassumed":11297,"Ġyellow":11298,"Ġadopted":11299,"ĠAstaire":11300,"ĠfiancÃ©":11301,"ĠStuart":11302,"ĠKapoor":11303,"Ġdysfunctional":11304,"eem":11305,"ko":11306,"vance":11307,"voc":11308,"Ġape":11309,"held":11310,"addy":11311,"Ġstim":11312,"ĠSel":11313,"ĠTheat":11314,"ĠMild":11315,"ĠMolly":11316,"Ġlibert":11317,"ĠHU":11318,"ĠWAY":11319,"ĠRourke":11320,"ĠFell":11321,"umar":11322,"auer":11323,"oder":11324,"aved":11325,"isha":11326,"ipid":11327,"Ġentitled":11328,"ĠInspector":11329,"Ġslaughter":11330,"ĠUnd":11331,"Ġchees":11332,"ĠDVDs":11333,"Ġpolished":11334,"attering":11335,"Ġcredited":11336,"onyo":11337,"bye":11338,"Ġmoronic":11339,"Ġmurdering":11340,"Ġposted":11341,"ĠTrans":11342,"Ġfascination":11343,"Ġbrutality":11344,"ĠRaymond":11345,"Ġaffairs":11346,"ĠFear":11347,"Ġsignificance":11348,"ĠKenneth":11349,"omeday":11350,"ĠBeatty":11351,"Ġignorance":11352,"ĠEgyptian":11353,"Dark":11354,"TW":11355,"beth":11356,"motion":11357,"erness":11358,"Ġcher":11359,"encer":11360,"ĠIF":11361,"Ġgor":11362,"Ġster":11363,"ĠAD":11364,"ĠHank":11365,"Ġactive":11366,"ĠLor":11367,"Ġouting":11368,"Ġnod":11369,"ĠVis":11370,"ĠVon":11371,"ĠVol":11372,"Ġminus":11373,"ĠUwe":11374,"Ġchew":11375,"Ġaddress":11376,"Ġconfidence":11377,"ĠChristians":11378,"Ġstrongest":11379,"Ġtransformed":11380,"Ġsteel":11381,"Ġfiller":11382,"ipper":11383,"Ġdrinks":11384,"Ġlifeless":11385,"ĠRooney":11386,"Ġrepresentation":11387,"Ġfifty":11388,"Ġrendered":11389,"Ġempathy":11390,"Ġdemonstrates":11391,"modern":11392,"ĠRecommended":11393,"Ġarguably":11394,"Ġobligatory":11395,"iblical":11396,"Ġdestroying":11397,"Ġjudgment":11398,"ĠCuba":11399,"ĠHindi":11400,"Ġpredecessor":11401,"ĠNatalie":11402,"Ġfundamental":11403,"bast":11404,"eur":11405,"fet":11406,"lins":11407,"main":11408,"zes":11409,"Ġ~":11410,"Ġtunn":11411,"inter":11412,"Ġtherap":11413,"Ġnarc":11414,"leans":11415,"ĠSop":11416,"ĠShat":11417,"ĠBed":11418,"Ġbutcher":11419,"ĠCy":11420,"ĠCrit":11421,"ĠHick":11422,"iffer":11423,"ĠDID":11424,"emet":11425,"ĠRex":11426,"umin":11427,"ĠNative":11428,"ĠOpera":11429,"oyle":11430,"Ġroots":11431,"osterous":11432,"iana":11433,"ĠStiller":11434,"Ġ22":11435,"Ġstartling":11436,"Ġconfir":11437,"Ġhearted":11438,"ĠSept":11439,"Ġcorpses":11440,"Ġ99":11441,"oiled":11442,"Ġprominent":11443,"!\"<":11444,"Ġliterary":11445,"Ġlosers":11446,"Ġoperation":11447,"Ġhomes":11448,"Ġcircus":11449,"ĠOthers":11450,"Ġexplores":11451,"Ġinvestigating":11452,"oopers":11453,"Ġauthorities":11454,"Ġindustrial":11455,"Ġderiv":11456,"ĠSalman":11457,"Ġinconsistent":11458,"CR":11459,"gian":11460,"lay":11461,"wright":11462,"your":11463,"atman":11464,"Ġec":11465,"ali":11466,"ĠHarr":11467,"Ġshared":11468,"ĠDance":11469,"ĠDia":11470,"Ġwholly":11471,"thought":11472,"andal":11473,"Ġrising":11474,"ĠFal":11475,"ĠFunny":11476,"Ġunlikable":11477,"plex":11478,"neath":11479,"Ġprey":11480,"Ġcontaining":11481,"Ġcrashes":11482,"ubby":11483,"Ġconscience":11484,"ĠClo":11485,"Ġswallow":11486,"Ġsupported":11487,"renching":11488,"ĠIMDB":11489,"Ġunlikeable":11490,"Ġambition":11491,"Ġopportunities":11492,"warf":11493,"regard":11494,"Ġdrove":11495,"Ġspecies":11496,"ĠDuv":11497,"Ġprincess":11498,"ĠWHY":11499,"Ġgreedy":11500,"Ġchuckle":11501,"ĠLoren":11502,"ĠOlivier":11503,"ĠNeedless":11504,"ĠLuckily":11505,"Ġshoddy":11506,"Ġwidescreen":11507,"ĠHerzog":11508,"EE":11509,"MAN":11510,"length":11511,"vals":11512,"yll":11513,"Ġsixties":11514,"Ġfox":11515,"Ġmute":11516,"Ġdreck":11517,"Ġliners":11518,"Ġhears":11519,"ĠMuppet":11520,"Ġchoppy":11521,"arty":11522,"asted":11523,"ĠGard":11524,"ĠNap":11525,"Ġpron":11526,"ĠAlm":11527,"Ġkeen":11528,"Ġtriangle":11529,"Ġinsipid":11530,"Ġartic":11531,"Ġdelicate":11532,"Ġmemor":11533,"ĠForget":11534,"Ġgrabs":11535,"comings":11536,"Ġwaves":11537,"Ġmasterpieces":11538,"Ġdemented":11539,"Ġprovocative":11540,"ĠGerald":11541,"Ġprofanity":11542,"EASE":11543,"ĠSimmons":11544,"Ġthreatens":11545,"Ġchallenges":11546,"Ġhackneyed":11547,"Ġpuzzle":11548,"Ġloyalty":11549,"Ġventure":11550,"Ġinaccurate":11551,"ĠFriends":11552,"16":11553,"bles":11554,"dead":11555,"hind":11556,"person":11557,"Ġsor":11558,"isy":11559,"enberg":11560,"orus":11561,"Ġdow":11562,"Ġdrill":11563,"ieves":11564,"ĠSara":11565,"Ġseldom":11566,"ĠMos":11567,"ĠDEAD":11568,"Ġsums":11569,"Ġabdu":11570,"Ġvain":11571,"Ġvice":11572,"Ġvocal":11573,"Ġoutfits":11574,"ĠGovern":11575,"ĠJenny":11576,"geant":11577,"ĠChief":11578,"izer":11579,"iped":11580,"Ġsometime":11581,"Ġgrief":11582,"Ġowned":11583,"Ġexceed":11584,"covered":11585,"Ġdelic":11586,"Ġlocals":11587,"ĠMarch":11588,"Ġhopelessly":11589,"ventures":11590,"ĠLegend":11591,"ĠSomehow":11592,"Ġdevices":11593,"Ġteams":11594,"Ġrespective":11595,"Ġbarrel":11596,"Ġsensual":11597,"ĠSimpsons":11598,"blown":11599,"Nothing":11600,"ĠCorb":11601,"Ġdescribing":11602,"Ġinsightful":11603,"ĠNicol":11604,"Ġrejected":11605,"ĠHopefully":11606,"Ġdomestic":11607,"Ġincorrect":11608,"ĠTemple":11609,"Ġdevastating":11610,"ĠReeves":11611,"ĠErika":11612,"Ġadolescent":11613,"//":11614,"Ab":11615,"New":11616,"VEN":11617,"cil":11618,"met":11619,"rating":11620,"Ġ.<":11621,"really":11622,"isk":11623,"ndrome":11624,"Ġmummy":11625,"Ġlush":11626,"ĠIll":11627,"brid":11628,"icolor":11629,"cel":11630,"Ġsending":11631,"rah":11632,"ĠCary":11633,"ĠCze":11634,"Ġshorter":11635,"Ġdope":11636,"antha":11637,"ĠPu":11638,"ĠGiant":11639,"Ġprospect":11640,"Ġunsu":11641,"abh":11642,"ĠKitty":11643,"Ġtwins":11644,"Ġbrood":11645,"Ġshoulder":11646,"everly":11647,"Ġcope":11648,"Ġlocated":11649,"ĠLeague":11650,"Ġmorbid":11651,"Ġinfant":11652,"ĠPerfect":11653,"Ġdifficulties":11654,"Ġinspire":11655,"ĠRichardson":11656,"loria":11657,"Ġroute":11658,"Ġscarecrow":11659,"Ġenthr":11660,"Ġassassination":11661,"Everything":11662,"Ġscrewed":11663,"Ġexposure":11664,"ĠBogart":11665,"ĠNicholas":11666,"ĠOffice":11667,"Ġguarante":11668,"Ġfulfill":11669,"Ġpreachy":11670,"Ġhungry":11671,"People":11672,"Ġrecycled":11673,"Ġsurgery":11674,"Hor":11675,"Ind":11676,"fr":11677,"mn":11678,"yet":11679,"ati":11680,"Ġfren":11681,"Ġdun":11682,"edge":11683,"Ġlens":11684,"vell":11685,"Ġeg":11686,"roe":11687,"ĠBox":11688,"ĠBeth":11689,"ĠCook":11690,"elic":11691,"ĠLup":11692,"ĠGh":11693,"ĠOuter":11694,"Ġpoem":11695,"neck":11696,"perhaps":11697,"Ġremove":11698,"Ġshoulders":11699,"ocaly":11700,"ĠBrady":11701,"itsch":11702,"ĠShould":11703,"Ġconfident":11704,"ounty":11705,"Ġmargin":11706,"Ġtops":11707,"Ġheartwarming":11708,"Ġrefuse":11709,"ĠWillie":11710,"Ġmorals":11711,"Ġvictory":11712,"heads":11713,"Ġmarked":11714,"Ġmilk":11715,"Thank":11716,"Ġcommunicate":11717,"Ġballs":11718,"Ġinternal":11719,"Ġfrightened":11720,"Ġknocked":11721,"Ġpreferred":11722,"Ġpreviews":11723,"Ġfirmly":11724,"Ġdeceased":11725,"ĠAccording":11726,"ĠUntil":11727,"AG":11728,"Dead":11729,"daughter":11730,"directed":11731,"lest":11732,"ping":11733,"Ġwakes":11734,"Ġbones":11735,"Ġhoot":11736,"otal":11737,"chi":11738,"Ġans":11739,"ĠBost":11740,"ĠCAN":11741,"ĠCopp":11742,"ĠCOM":11743,"ustin":11744,"oodoo":11745,"Ġcharged":11746,"atively":11747,"ĠEarl":11748,"ĠOt":11749,"ounded":11750,"odder":11751,"ĠKnow":11752,"apse":11753,"Ġtwelve":11754,"ighters":11755,"Ġcheek":11756,"Ġsupply":11757,"ashi":11758,"Ġexploring":11759,"Ġwarrior":11760,"aham":11761,"Ġminded":11762,"Ġsingers":11763,"hetically":11764,"guided":11765,"Ġconsiderably":11766,"ĠDanes":11767,"ĠConne":11768,"Ġposters":11769,"Ġ1997":11770,"bbie":11771,"ĠNights":11772,"ĠDarkness":11773,"Ġdeserted":11774,"Ġservant":11775,"Ġmatched":11776,"Ġreflects":11777,"two":11778,"ĠCarey":11779,"ĠMitchum":11780,"kshay":11781,"Ġsuspend":11782,"Back":11783,"days":11784,"direct":11785,"fashion":11786,"pan":11787,"Ġwing":11788,"Ġwoe":11789,"Ġbarb":11790,"Ġhitch":11791,"Ġpill":11792,"llie":11793,"Ġtoys":11794,"arse":11795,"ilation":11796,"eting":11797,"ghter":11798,"amiliar":11799,"uration":11800,"ĠHogan":11801,"ĠWoo":11802,"ĠDow":11803,"Ġabund":11804,"usp":11805,"Ġintro":11806,"ciously":11807,"Ġpecul":11808,"Ġoverlong":11809,"Ġserving":11810,"Ġbrat":11811,"Ġinvites":11812,"eches":11813,"Ġshortcomings":11814,"ĠBeast":11815,"Ġstudying":11816,"ologically":11817,"usey":11818,"Ġpresenting":11819,"ĠSamuel":11820,"Ġbleed":11821,"Ġ1968":11822,"ĠCrazy":11823,"Ġpreposterous":11824,"Ġdimin":11825,"Ġunexpectedly":11826,"Ġgender":11827,"Ġoption":11828,"Ġpetty":11829,"Ġimaginable":11830,"elvet":11831,"ĠCruise":11832,"ĠKurtz":11833,"ĠMUST":11834,"Ġrhythm":11835,"Ġcontradict":11836,"Ġderivative":11837,"EAR":11838,"Jean":11839,"Joe":11840,"More":11841,"Pr":11842,"bar":11843,"eor":11844,"flu":11845,"runs":11846,"say":11847,"Ġ....":11848,"atoes":11849,"Ġbreed":11850,"Ġpie":11851,"chor":11852,"ĠSix":11853,"ĠCut":11854,"ĠCarly":11855,"ĠCON":11856,"Ġplag":11857,"agle":11858,"ĠPrest":11859,"ĠLifetime":11860,"Ġrational":11861,"ĠJos":11862,"pton":11863,"arest":11864,"ĠStorm":11865,"Ġviewpoint":11866,"Ġcomputers":11867,"Ġreader":11868,"ova":11869,"inski":11870,"playing":11871,"Ġcontinually":11872,"Ġfilling":11873,"working":11874,"Str":11875,"ĠMonty":11876,"Ġhistoric":11877,"Ġconviction":11878,"Ġcruelty":11879,"Ġbirds":11880,"Ġdemanding":11881,"Ġcaricature":11882,"ĠBrosnan":11883,"ĠHyde":11884,"Ġwardrobe":11885,"Ġathlet":11886,"dyssey":11887,"OY":11888,"Rock":11889,"bot":11890,"buck":11891,"ef":11892,"ho":11893,"pres":11894,"rec":11895,"Ġwander":11896,"atured":11897,"Ġmates":11898,"orters":11899,"Ġpump":11900,"arious":11901,"Ġniece":11902,"ĠAF":11903,"ĠAunt":11904,"Ġselection":11905,"urst":11906,"Ġweather":11907,"Ġshred":11908,"Ġchronic":11909,"ainted":11910,"Ġsoci":11911,"Ġvign":11912,"ĠPig":11913,"ĠRent":11914,"ĠLance":11915,"ĠLily":11916,"Ġshell":11917,"icken":11918,"Ġspan":11919,"Ġflam":11920,"Ġflashes":11921,"Ġslip":11922,"Ġowns":11923,"Ġlasting":11924,"Ġunderstands":11925,"ĠBlond":11926,"ĠScreen":11927,"Ġheartfelt":11928,"Ġblackmail":11929,"Ġheroin":11930,"guin":11931,"Ġdealer":11932,"Ġsolo":11933,"Ġdrift":11934,"*****":11935,"ĠRichards":11936,"Ġ1983":11937,"Ġembark":11938,"Ġdesigner":11939,"Ġwilderness":11940,"Ġadditional":11941,"Ġsurroundings":11942,"ĠWWE":11943,"Ġhypoc":11944,"Ġresolved":11945,"ĠMontana":11946,"Ġemerges":11947,"ĠPortug":11948,"ĠDunne":11949,"ĠAmazon":11950,"Ġweaknesses":11951,"Ġinexplicably":11952,"Ġacclaimed":11953,"Ġspaceship":11954,"ĠScotland":11955,"Ġunexplained":11956,"Dis":11957,"RY":11958,"evil":11959,"haw":11960,"west":11961,"yard":11962,"Ġx":11963,"atable":11964,"Ġbars":11965,"once":11966,"Ġgarden":11967,"ĠTW":11968,"Ġstare":11969,"ĠSide":11970,"ĠMol":11971,"ĠCushing":11972,"ĠHo":11973,"ĠFIL":11974,"ĠEastern":11975,"Ġleather":11976,"ĠKN":11977,"ĠKle":11978,"Ġdisast":11979,"cca":11980,"getic":11981,"ĠAliens":11982,"Ġinsists":11983,"ĠWhit":11984,"ERT":11985,"Ġgloom":11986,"ĠClar":11987,"ĠMarx":11988,"ĠZero":11989,"comed":11990,"Ġcolon":11991,"Ġsooner":11992,"ĠEverybody":11993,"writing":11994,"Which":11995,"Ġidentical":11996,"ĠFlash":11997,"ĠGoldberg":11998,"Ġvirtual":11999,"ĠIrene":12000,"Ġdestroys":12001,"ĠWORST":12002,"ĠGibson":12003,"fetched":12004,"emetery":12005,"ĠCzech":12006,"Sorry":12007,"War":12008,"normal":12009,"Ġsque":12010,"itabh":12011,"Ġbread":12012,"Ġpushes":12013,"ĠAction":12014,"urg":12015,"ĠMam":12016,"ĠCel":12017,"ĠCab":12018,"ĠConsidering":12019,"ĠHilton":12020,"Ġshaky":12021,"Ġchills":12022,"Ġvital":12023,"ĠRid":12024,"Ġrises":12025,"ĠFool":12026,"respect":12027,"Ġunseen":12028,"ĠEmpire":12029,"Ġwhats":12030,"Ġrope":12031,"ĠVince":12032,"ĠHend":12033,"Ġentered":12034,"Ġrefers":12035,"ypsy":12036,"ATH":12037,"Ġpsychology":12038,"load":12039,"Ġhostage":12040,"ĠDenzel":12041,"ĠKidman":12042,"Ġpaintings":12043,"====":12044,"ĠNetwork":12045,"Ġrapidly":12046,"Queen":12047,"ĠClooney":12048,"ocalyptic":12049,"://":12050,"Pol":12051,"gren":12052,"pes":12053,"itated":12054,"aro":12055,"ico":12056,"Ġ/>--":12057,"ĠTak":12058,"ĠTele":12059,"Ġrevers":12060,"Ġrebel":12061,"adly":12062,"Ġstages":12063,"ido":12064,"Ġasylum":12065,"ĠAbsolutely":12066,"ĠBased":12067,"ĠMust":12068,"ĠMess":12069,"ĠWITH":12070,"ĠDud":12071,"Ġsucc":12072,"actory":12073,"Ġrides":12074,"ĠGot":12075,"Ġmeas":12076,"ĠOct":12077,"ĠOUT":12078,"ĠKings":12079,"Ġperman":12080,"obby":12081,"Ġfluff":12082,"ansas":12083,"Ġgray":12084,"Ġyoungest":12085,"Ġstrangers":12086,"Ġepit":12087,"Ġinterrog":12088,"ĠBeach":12089,"Ġcentered":12090,"Ġmorally":12091,"ANG":12092,"Ġstruct":12093,"ĠOrleans":12094,"Ġdestiny":12095,"Ġsubtly":12096,"Ġfilmmaking":12097,"Ġairport":12098,"Ġrespectable":12099,"Ġplanes":12100,"backs":12101,"Ġ1979":12102,"Ġacceptance":12103,"OUR":12104,"Ġidol":12105,"ĠSimply":12106,"Ġmentality":12107,"Ġtestament":12108,"ĠSurely":12109,"Ġdisgusted":12110,"Blood":12111,"Ġstretched":12112,"ĠTerror":12113,"ĠHayes":12114,"ĠColumbia":12115,"ĠRunner":12116,"ĠUpon":12117,"ttp":12118,"Ġsketch":12119,"Ġsuburban":12120,"Ġreluctant":12121,"Ġsteady":12122,"ĠCowboy":12123,"Ġamusement":12124,"Ġvibrant":12125,"hoeven":12126,"ĠMildred":12127,"ded":12128,"overs":12129,"wer":12130,"Ġomin":12131,"Ġfur":12132,"Ġlunch":12133,"chair":12134,"kees":12135,"Ġseam":12136,"ĠBattle":12137,"ĠBusey":12138,"ĠMort":12139,"Ġshaking":12140,"ulent":12141,"ĠWish":12142,"ĠDanger":12143,"Ġdose":12144,"Ġabst":12145,"ĠPfe":12146,"ĠRat":12147,"ĠRupert":12148,"ĠLight":12149,"ĠFra":12150,"ĠGray":12151,"ardom":12152,"ortions":12153,"Ġunm":12154,"ĠKathy":12155,"Ġpoker":12156,"ĠVelvet":12157,"Ġafterward":12158,"Ġbrown":12159,"rup":12160,"Ġgrin":12161,"Ġnewcom":12162,"iculty":12163,"Ġvisited":12164,"Ġtopics":12165,"Ġschools":12166,"ĠMyr":12167,"Ġthrilled":12168,"chester":12169,"ĠConan":12170,"Ġrespectively":12171,"Ġsurvives":12172,"boat":12173,"Ġprogramme":12174,"Ġstrengths":12175,"ĠWesterns":12176,"Ġcaliber":12177,"ĠDamon":12178,"ĠDaniels":12179,"Ġdisguise":12180,"Ġelevator":12181,"Ġdifficulty":12182,"ĠSNL":12183,"Bill":12184,"DVD":12185,"bie":12186,"bound":12187,"rection":12188,"erman":12189,"Ġmort":12190,"ioni":12191,"ĠARE":12192,"unless":12193,"asting":12194,"ĠGay":12195,"ĠGinger":12196,"acking":12197,"ĠOdd":12198,"Ġscenar":12199,"placed":12200,"Ġpartially":12201,"Ġremakes":12202,"Ġbride":12203,"ĠStupid":12204,"Ġattorney":12205,"ailing":12206,"ĠAlone":12207,"Ġtraits":12208,"ocracy":12209,"Ġstrings":12210,"Ġaudition":12211,"ĠThor":12212,"Ġskits":12213,"Ġmarries":12214,"ypical":12215,"ĠEdge":12216,"Ġmotive":12217,"Ġairplane":12218,"Ġengrossing":12219,"Three":12220,"Ġconduct":12221,"Ġdropping":12222,"Ġabsurdity":12223,"Ġdiscussing":12224,"Ġemployed":12225,"ĠHayworth":12226,"ymour":12227,"ĠThankfully":12228,"Ġinevitably":12229,"Ġhealthy":12230,"Ġuniformly":12231,"ĠPaxton":12232,"mittedly":12233,"iblings":12234,"Ġtempted":12235,"Ġinfected":12236,"Ġaspiring":12237,"Ġadmittedly":12238,"ĠDillon":12239,"Ġconveys":12240,"ĠBakshi":12241,"ĠCoppola":12242,"Ġpeculiar":12243,"DER":12244,"IES":12245,"Mad":12246,"Ray":12247,"UD":12248,"acious":12249,"cop":12250,"dan":12251,"giving":12252,"Ã³":12253,"inator":12254,"arate":12255,"Ġduck":12256,"Ġdressing":12257,"ĠIV":12258,"leck":12259,"Ġrehears":12260,"cends":12261,"ĠAwards":12262,"ĠSweet":12263,"Ġhapless":12264,"ĠBarker":12265,"Ġneur":12266,"Ġsharing":12267,"Ġshoe":12268,"Ġchron":12269,"Ġvoted":12270,"Ġdepend":12271,"ĠPoe":12272,"ĠLed":12273,"ĠLess":12274,"indu":12275,"ĠNik":12276,"ĠEugene":12277,"Ġenig":12278,"Ġawaken":12279,"Ġripping":12280,"athon":12281,"Ġcasts":12282,"Ġexpects":12283,"Ġhelpful":12284,"Ġvisions":12285,"ampoon":12286,"Ġassured":12287,"Ġcrazed":12288,"Ġmisguided":12289,"Ġhilarity":12290,"ucci":12291,"ĠGodzilla":12292,"Ġeventual":12293,"OOOO":12294,"blah":12295,"Ġbombs":12296,"Ġstores":12297,"itzer":12298,"ACE":12299,"Ġseparated":12300,"ugging":12301,"ĠRusso":12302,"Ġlaunch":12303,"ĠTerrible":12304,"Ġkissing":12305,"Ġconnections":12306,"ĠWilder":12307,"ĠVerhoeven":12308,"www":12309,"ĠCarell":12310,"Ġcanceled":12311,"ĠTruly":12312,"Ġexquisite":12313,"Ġconventions":12314,"Ġcensors":12315,",(":12316,"PER":12317,"Sl":12318,"bul":12319,"dep":12320,"fish":12321,"hole":12322,"named":12323,"oard":12324,"tick":12325,"Ġsale":12326,"Ġwives":12327,"Ġfuel":12328,"Ġcattle":12329,"Ġlux":12330,"Ġnick":12331,"ĠShy":12332,"ĠBert":12333,"ĠCard":12334,"ĠHans":12335,"Ġjarring":12336,"Ġvoc":12337,"ĠPost":12338,"quin":12339,"umn":12340,"ĠGO":12341,"ĠGentle":12342,"ĠGOD":12343,"Ġunrelated":12344,"assing":12345,"Ġadvers":12346,"owned":12347,"Ġblues":12348,"bearing":12349,"Ġspeeches":12350,"ffects":12351,"eworthy":12352,"orders":12353,"Ġcoff":12354,"Ġreported":12355,"Ġmessy":12356,"Ġregards":12357,"OTH":12358,"Ġhugely":12359,"ĠElvira":12360,"Ġlaws":12361,"ĠQuentin":12362,"ĠGlob":12363,"Ġunsus":12364,"ĠChristianity":12365,"Ġstopping":12366,"ĠPalma":12367,"ĠWHAT":12368,"Ġjealousy":12369,"Ġbabys":12370,"ĠCostello":12371,"Ġpedest":12372,"Ġarchitect":12373,"Ġclaustrophobic":12374,"Ġdeleted":12375,"GH":12376,"Jane":12377,"Little":12378,"Mon":12379,"date":12380,"gio":12381,"gency":12382,"ois":12383,"ses":12384,"vas":12385,"atement":12386,"Ġmac":12387,"Ġpulp":12388,"ician":12389,"Ġnatives":12390,"almost":12391,"rio":12392,"ĠMain":12393,"ĠCos":12394,"ĠHep":12395,"ĠDy":12396,"ĠRush":12397,"ĠLund":12398,"ĠFast":12399,"feld":12400,"Ġunimp":12401,"gends":12402,"ĠView":12403,"ensen":12404,"Ġracing":12405,"Ġsetup":12406,"Ġcamc":12407,"Ġhandling":12408,"aney":12409,"ractive":12410,"Ġretire":12411,"ĠSeymour":12412,"minger":12413,"Ġpromote":12414,"ĠOrson":12415,"Ġuncertain":12416,"Ġforgiven":12417,"Ġattacking":12418,"ĠTravolta":12419,"Ġreceiving":12420,"Ġsticking":12421,"ĠEmperor":12422,"ĠBela":12423,"Ġkidnapping":12424,"Ġlayers":12425,"Ġcoward":12426,"ĠDemons":12427,"ĠRonald":12428,"Ġstumbles":12429,"ĠOlivia":12430,"Ġfluid":12431,"Ġingenious":12432,"Ġprejudice":12433,"Yeah":12434,"ĠHopkins":12435,"ĠPfeiffer":12436,"Ant":12437,"FE":12438,"Film":12439,"Pat":12440,"erve":12441,"Ġfiring":12442,"Ġmafia":12443,"oura":12444,"onent":12445,"Ġtooth":12446,"Ġbew":12447,"ĠSoul":12448,"herd":12449,"rand":12450,"Ġalley":12451,"thon":12452,"isted":12453,"Ġranch":12454,"Ġhers":12455,"near":12456,"Ġthrust":12457,"Ġblink":12458,"ĠViol":12459,"Ġspecially":12460,"Ġunderm":12461,"Ġrifle":12462,"Ġraces":12463,"Ġcouch":12464,"Ġsubmar":12465,"Ġterrified":12466,"Ġinvasion":12467,"mostly":12468,"cope":12469,"isode":12470,"Ġstandout":12471,"ĠSpider":12472,"Ġavid":12473,"Ġmoron":12474,"Ġmedic":12475,"Ġinfo":12476,"Ġconstit":12477,"Ġbreakdown":12478,"Ġpleasing":12479,"Ġ1996":12480,"Ġrecognizable":12481,"Ġstatue":12482,"Ġmacho":12483,"affy":12484,"Ġpunches":12485,"Ġmirac":12486,"Ġaccounts":12487,"ĠWinters":12488,"Ġearnest":12489,"ĠSnipes":12490,"Ġredund":12491,"ĠMilo":12492,"Ġvastly":12493,"Ġcontribution":12494,"ĠDetective":12495,"ĠArmstrong":12496,"Ġmechanical":12497,"Ġinstrument":12498,"driven":12499,"ĠAfghanistan":12500,"Ġaristocr":12501,"ĠDuvall":12502,"Ġanswered":12503,"ĠFILM":12504,"Lu":12505,"Life":12506,"mel":12507,"Ġtap":12508,"Ġwire":12509,"Ġfade":12510,"Ġmall":12511,"Ġdwell":12512,"along":12513,"utton":12514,"iless":12515,"lymp":12516,"ĠBin":12517,"Ġ('":12518,"ĠWright":12519,"Ġjaded":12520,"Ġactivity":12521,"Ġvo":12522,"Ġvary":12523,"Ġoutlaw":12524,"ĠFans":12525,"apid":12526,"Ġque":12527,"Ġslut":12528,"Ġcontempt":12529,"Ġmins":12530,"Ġcomprehe":12531,"Ġsmiles":12532,"Ġhandles":12533,"Ġlasts":12534,"Ġglowing":12535,"symp":12536,"orky":12537,"ĠChristina":12538,"Ġindication":12539,"Ġcollaps":12540,"Ġmisfortun":12541,"Ġdeserving":12542,"Chris":12543,"ĠSchne":12544,"ĠRussians":12545,"ĠAlec":12546,"Ġclaiming":12547,"Ġdepths":12548,"Ġmassacre":12549,"Ġradical":12550,"Ġcompete":12551,"ĠIrons":12552,"Ġsavage":12553,"Ġastounding":12554,"Ġdefeated":12555,"Ġspectacle":12556,"Ġcelebration":12557,"ĠCarlos":12558,"ĠLambert":12559,"Ġcrisp":12560,"ĠSavage":12561,"Ġrestrained":12562,"Ġbefriends":12563,"Ġadmirable":12564,"Ġskateboard":12565,"Ġexpedition":12566,"ĠStallone":12567,"ĠDiaz":12568,"\"<":12569,"CM":12570,"Col":12571,"King":12572,"Mat":12573,"fig":12574,"Ġtab":12575,"Ġsou":12576,"Ġfoil":12577,"Ġhides":12578,"Ġpione":12579,"Ġtomb":12580,"Ġdates":12581,"ĠTok":12582,"ĠSandy":12583,"ĠBottom":12584,"ĠMey":12585,"tery":12586,"ĠCand":12587,"ulse":12588,"Ġscrap":12589,"ĠLoc":12590,"ĠFoot":12591,"ĠJill":12592,"Ġjustified":12593,"ardo":12594,"ĠNiel":12595,"ĠEyre":12596,"Ġupst":12597,"ĠOllie":12598,"ĠKline":12599,"ĠKey":12600,"izoph":12601,"Ġentering":12602,"Ġprince":12603,"Ġunderneath":12604,"Ġbugs":12605,"ovsky":12606,"onti":12607,"ĠNote":12608,"Ġretros":12609,"Ġpassage":12610,"Ġfemme":12611,"Ġfabr":12612,"Ġdescent":12613,"ĠSamantha":12614,"Ġwaitress":12615,"Ġ1993":12616,"ĠBoyle":12617,"Ġballet":12618,"Ġhangs":12619,"winning":12620,"Anyone":12621,"Ġhammy":12622,"genre":12623,"Ġblatantly":12624,"Ġautomatically":12625,"Ġabruptly":12626,"ĠShatner":12627,"ĠDowney":12628,"ĠPreston":12629,"17":12630,"100":12631,"IRE":12632,"Les":12633,"dem":12634,"gt":12635,"gles":12636,"oen":12637,"Ġtaped":12638,"Ġpink":12639,"omber":12640,"Ġnurs":12641,"ĠAR":12642,"ĠLange":12643,"ĠFan":12644,"reated":12645,"Ġupside":12646,"cile":12647,"Ġagency":12648,"orsese":12649,"Ġgiallo":12650,"Ġfactors":12651,"Ġbitch":12652,"Ġinspect":12653,"deal":12654,"aha":12655,"ĠDebbie":12656,"ĠScor":12657,"Ġblacks":12658,"Ġpainter":12659,"Ġregion":12660,"Ġroommate":12661,"Ġ1971":12662,"Ġ1984":12663,"Ġwitches":12664,"Ġpublicity":12665,"borg":12666,"Ġimmortal":12667,"ĠBrain":12668,"ĠActress":12669,"Ġ1969":12670,"IDE":12671,"Ġenergetic":12672,"Without":12673,"Ġdragon":12674,"production":12675,"Ġhomosexuality":12676,"ĠToronto":12677,"ĠBeauty":12678,"Ġanticipation":12679,"ĠBacon":12680,"Ġcrocodile":12681,"ĠSydney":12682,"Ġslimy":12683,"ĠDomino":12684,"Ġtactics":12685,"Ġbasketball":12686,"ĠSellers":12687,"Ġmotorcycle":12688,"Ġguaranteed":12689,"izophren":12690,"''":12691,"DS":12692,"Ter":12693,"gas":12694,"gid":12695,"hilar":12696,"kill":12697,"much":12698,"mary":12699,"Ġturd":12700,"inction":12701,"Ġsomeday":12702,"Ġmales":12703,"Ġcoc":12704,"arters":12705,"Ġgambling":12706,"utions":12707,"ĠToy":12708,"Ġformed":12709,"ĠSway":12710,"ĠBird":12711,"ĠBunny":12712,"Ġaboard":12713,"ĠPowers":12714,"ĠLeland":12715,"quette":12716,"ĠGable":12717,"ĠJa":12718,"ĠJar":12719,"Ġunatt":12720,"ĠKramer":12721,"ĠVill":12722,"Ġbackwards":12723,"Ġ1920":12724,"Ġmayor":12725,"Ġcoupled":12726,"ubble":12727,"Ġrestrict":12728,"iterally":12729,"Ġcommits":12730,"Ġassure":12731,"Ġcommenting":12732,"Ġuncons":12733,"ĠAmong":12734,"Ġaccepts":12735,"Ġsuggestion":12736,"Ġapproaches":12737,"Ġimmature":12738,"Ġrecords":12739,"Ġrequest":12740,"Ġmelanch":12741,"Ġmidnight":12742,"Ġcrossing":12743,"Ġlaun":12744,"Ġnerves":12745,"Ġsitcoms":12746,"ĠUniversity":12747,"Ġgentleman":12748,"ĠBeatles":12749,"Ġcaricatures":12750,"ĠGregory":12751,"Ġinhabitants":12752,"Ġdilemma":12753,"ĠSeptember":12754,"18":12755,"cat":12756,"cool":12757,"dest":12758,"Ġtip":12759,"Ġaer":12760,"Ġsiblings":12761,"Ġol":12762,"Ġpant":12763,"Ġduration":12764,"Ġgained":12765,"Ġnails":12766,"stan":12767,"ieval":12768,"tering":12769,"ĠHaines":12770,"outhed":12771,"arthy":12772,"ĠLena":12773,"Ġoutright":12774,"ĠFace":12775,"ĠFont":12776,"ĠFinn":12777,"ĠGret":12778,"Ġproving":12779,"Ġquarter":12780,"Ġoverd":12781,"Ġrooting":12782,"epers":12783,"ober":12784,"Ġremade":12785,"Ġincidents":12786,"Ġneedless":12787,"Ġsincerely":12788,"note":12789,"Ġassert":12790,"Ġdefinitive":12791,"ĠZe":12792,"enna":12793,"lights":12794,"Ġminority":12795,"profess":12796,"ĠPolanski":12797,"ĠRambo":12798,"ĠCohen":12799,"Ġreferring":12800,"ĠEntertain":12801,"Ġshopping":12802,"ĠWerewolf":12803,"Ġdepends":12804,"ĠTechnicolor":12805,"Ġfrozen":12806,"ĠNovak":12807,">>":12808,"MA":12809,"Rec":12810,"iably":12811,"post":12812,"tta":12813,"zzy":12814,"Ġmail":12815,"orient":12816,"ouge":12817,"Ġpenn":12818,"Ġlion":12819,"oming":12820,"Ġbelly":12821,"ador":12822,"sexual":12823,"ĠAIDS":12824,"ĠSOME":12825,"ĠCL":12826,"Ġframes":12827,"Ġkudos":12828,"Ġvotes":12829,"ĠPulp":12830,"ĠPiper":12831,"ĠPonyo":12832,"Ġworship":12833,"ĠRel":12834,"ĠJod":12835,"Ġmeal":12836,"Ġ''":12837,"ĠFrances":12838,"Ġboasts":12839,"Ġ101":12840,"Ġglance":12841,"Ġglued":12842,"axy":12843,"Ġexamination":12844,"Ġbudgets":12845,"ORY":12846,"Ġcombines":12847,"Ġsuitably":12848,"Ġapproaching":12849,"ĠMoreover":12850,"ĠSecondly":12851,"Plan":12852,"Ġtolerable":12853,"Ġassuming":12854,"Ġaddicted":12855,"ĠPrivate":12856,"Ġtossed":12857,"Ġlimitations":12858,"Ġsatirical":12859,"Seriously":12860,"Ġsarcastic":12861,"character":12862,"Ġdisastrous":12863,"Bottom":12864,"Because":12865,"NA":12866,"best":12867,"has":12868,"liest":12869,"stin":12870,"ieg":12871,"amo":12872,"ĠBam":12873,"ĠBeverly":12874,"ĠCou":12875,"ĠHum":12876,"usively":12877,"Ġven":12878,"Ġvomit":12879,"ĠPle":12880,"ĠPix":12881,"isty":12882,"ĠLiv":12883,"ĠFun":12884,"abby":12885,"inky":12886,"Ġdisin":12887,"Ġadvis":12888,"gins":12889,"Ġspree":12890,"ĠVisc":12891,"Ġbacks":12892,"Ġunderwear":12893,"ĠUP":12894,"ĠAlive":12895,"ĠJoh":12896,"ĠShell":12897,"Ġcoat":12898,"Ġentirety":12899,"Ġreports":12900,"Ġtranspl":12901,"Ġdemonic":12902,"Ġsuspension":12903,"Ġspirited":12904,"Ġmeteor":12905,"Ġerror":12906,"ĠMend":12907,"Ġpractical":12908,"Ġthreatened":12909,"Ġoffend":12910,"ĠVictorian":12911,"Ġpilots":12912,"Ġmiracle":12913,"Ġbiopic":12914,"ĠEvans":12915,"Ġtranslated":12916,"Ġemerge":12917,"moving":12918,"Ġlinked":12919,"ĠToday":12920,"ĠWriter":12921,"ĠJacob":12922,"Ġwanders":12923,"ĠAmazing":12924,"ĠWendy":12925,"Ġdubious":12926,"Ġpattern":12927,"ĠHepburn":12928,"Ġcamcorder":12929,"Get":12930,"bourne":12931,"dig":12932,"hart":12933,"uber":12934,"Ġcro":12935,"orous":12936,"Ġharr":12937,"Ġhollow":12938,"Ġstardom":12939,"keeper":12940,"ĠAS":12941,"ĠSa":12942,"ĠSudden":12943,"ĠBS":12944,"ĠBoo":12945,"ĠBug":12946,"ĠHK":12947,"ulously":12948,"Ġframed":12949,"ĠLib":12950,"Ġouter":12951,"Ġintentional":12952,"quire":12953,"Ġunem":12954,"Ġfeast":12955,"Ġdisci":12956,"Ġtrials":12957,"anky":12958,"Ġcohes":12959,"exter":12960,"ĠÂĳ":12961,"shock":12962,"Ġcultures":12963,"ĠGrudge":12964,"Ġ1973":12965,"Ġ1982":12966,"Ġwindows":12967,"Ġinformative":12968,"Ġprograms":12969,"Ġcontinuing":12970,"ĠMacbeth":12971,"ĠSanders":12972,"Ġdeparture":12973,"Ġiconic":12974,"ĠIncred":12975,"Ġfeminist":12976,"Ġphenomenon":12977,"Ġfortunate":12978,"Ġdiverse":12979,"Ġmesmerizing":12980,"Ġrebellious":12981,"Ġexterior":12982,"ĠTheatre":12983,"fashioned":12984,"Ġunsuspecting":12985,"!\".":12986,"14":12987,"cre":12988,"high":12989,"have":12990,"wide":12991,"Ġtrop":12992,"Ġfishing":12993,"esque":12994,"Ġhust":12995,"Ġinjust":12996,"Ġinformed":12997,"icer":12998,"Ġglee":12999,"stru":13000,"ilia":13001,"Ġstairs":13002,"roit":13003,"ĠBard":13004,"ĠMath":13005,"ĠMask":13006,"Ġshining":13007,"ĠDoo":13008,"unks":13009,"ppers":13010,"ĠPoll":13011,"ĠFay":13012,"ortant":13013,"Ġanyways":13014,"Ġclin":13015,"Ġclone":13016,"tec":13017,"Ġpee":13018,"Ġcharacterizations":13019,"Ġspine":13020,"Ġflim":13021,"Ġflashy":13022,"Ġunderworld":13023,"Ġresidents":13024,"Ġrave":13025,"ĠAsia":13026,"Ġexpectation":13027,"itionally":13028,"scar":13029,"Ġmonument":13030,"ĠSpencer":13031,"ĠScorsese":13032,"atton":13033,"Ġexpose":13034,"Ġexpense":13035,"INK":13036,"Ġregularly":13037,"Ġinflict":13038,"Ġconsideration":13039,"Ġconvinces":13040,"Ġinspir":13041,"Ġsensible":13042,"ĠExorcist":13043,"Ġautobi":13044,"Ġmannerisms":13045,"Ġstunningly":13046,"Ġrescued":13047,"ĠLauren":13048,"Ġdespicable":13049,"ĠFuller":13050,"Christopher":13051,"ĠCannes":13052,"ographical":13053,"Ġecho":13054,"Ġprivile":13055,"ĠSpirit":13056,"Ġchopped":13057,"ĠFarrell":13058,"\":":13059,"TF":13060,"Take":13061,"first":13062,"gener":13063,"wic":13064,"Ġ!!":13065,"Ġtapes":13066,"atum":13067,"Ġmasc":13068,"Ġbilled":13069,"oria":13070,"asse":13071,"Ġnit":13072,"Ġnaught":13073,"ĠTIM":13074,"ĠAway":13075,"irlfriend":13076,"Ġneo":13077,"ĠCop":13078,"ĠHulk":13079,"osal":13080,"opard":13081,"ĠPC":13082,"ĠPose":13083,"Ġconj":13084,"ĠGate":13085,"ardieu":13086,"Ġlend":13087,"Ġgoods":13088,"oda":13089,"Ġendlessly":13090,"Ġpretends":13091,"Ġadjust":13092,"avin":13093,"Ġspont":13094,"Ġfles":13095,"Ġcontribute":13096,"Ġcrashing":13097,"Ġsubtext":13098,"Ġscreenwriters":13099,"ĠBron":13100,"rosawa":13101,"Ġcopied":13102,"Ġstudied":13103,"ĠSebast":13104,"ĠNews":13105,"ikes":13106,"ĠEdie":13107,"ĠGrinch":13108,"Ġslee":13109,"ramatic":13110,"Ġ1978":13111,"Ġ1988":13112,"Ġdecidedly":13113,"Ġmixing":13114,"Ġapproached":13115,"ĠMonroe":13116,"REE":13117,"Ġcolleagues":13118,"super":13119,"ĠHorrible":13120,"Ġmercy":13121,"Ġsquee":13122,"Ġlegacy":13123,"ITY":13124,"?!?!":13125,"Ġimplied":13126,"Unlike":13127,"Ġcleaning":13128,"Ġtendency":13129,"Ġnerve":13130,"Ġconfronted":13131,"ĠCassidy":13132,"Ġprincip":13133,"Ġenthusiastic":13134,"Ġbabies":13135,"girls":13136,"Ġrewarding":13137,"Ġadopt":13138,"ĠNolte":13139,"Ġconveniently":13140,"Ġconvicted":13141,"Ġphenomenal":13142,"Ġpoliticians":13143,"Ġironically":13144,"Ġconclude":13145,"ĠCasey":13146,"Toole":13147,"Ġbeside":13148,"ĠBoston":13149,".),":13150,"bon":13151,"car":13152,"cript":13153,"chet":13154,"cules":13155,"door":13156,"fare":13157,"Ġwounds":13158,"athing":13159,"Ġbent":13160,"Ġcemetery":13161,"Ġhires":13162,"Ġpomp":13163,"angh":13164,"Ġling":13165,"Ġstumble":13166,"idan":13167,"ĠAven":13168,"ĠSoder":13169,"Ġbutler":13170,"ĠCross":13171,"ĠCron":13172,"people":13173,"anton":13174,"Ġvile":13175,"olt":13176,"ĠRhett":13177,"Ġoutline":13178,"Ġrug":13179,"umming":13180,"ĠGall":13181,"ĠJed":13182,"ĠEthan":13183,"Ġgoals":13184,"icky":13185,"Ġdismal":13186,"Ġdisabled":13187,"avia":13188,"Ġrealization":13189,"Ġhorny":13190,"Ġslack":13191,"Ġchee":13192,"Ġtrace":13193,"ockey":13194,"Ġfarmer":13195,"Ġmonkeys":13196,"Ġfathers":13197,"Ġrepulsive":13198,"Ġretrie":13199,"ĠRevolution":13200,"ĠÂ£":13201,"ĠÂħ":13202,"shadow":13203,"ĠGerard":13204,"ĠJustice":13205,"Ġangels":13206,"Ġuncut":13207,"Ġrespects":13208,"Ġerr":13209,"ĠTwilight":13210,"Ġestr":13211,"Ġaffects":13212,"ĠLester":13213,"Ġfifth":13214,"RIBLE":13215,"Ġcontroversy":13216,"Ġauthenticity":13217,"produced":13218,"Next":13219,"Ġcooking":13220,"ĠAntonioni":13221,"Ġtremendously":13222,"Ġconcentrate":13223,"ĠBonnie":13224,"Ġisolation":13225,"Ġmasks":13226,"ĠDirection":13227,"Ġcliches":13228,"Ġintricate":13229,"Boy":13230,"HO":13231,"bly":13232,"dam":13233,"lord":13234,"mad":13235,"vability":13236,"Ġfaint":13237,"Ġcage":13238,"Ġhuh":13239,"Ġinsec":13240,"urous":13241,"urring":13242,"ĠMall":13243,"ĠHou":13244,"Ġattended":13245,"ĠDest":13246,"Ġjet":13247,"Ġdoom":13248,"olved":13249,"Ġrats":13250,"ĠJuly":13251,"ĠNa":13252,"ĠNaked":13253,"odox":13254,"ĠKiss":13255,"ĠKumar":13256,"ayson":13257,"Ġprequel":13258,"before":13259,"Ġoldest":13260,"Ġdecap":13261,"Ġsmug":13262,"arrot":13263,"Ġacademy":13264,"nothing":13265,"ĠScary":13266,"ĠChristine":13267,"guard":13268,"cheek":13269,"Ġaircraft":13270,"Ġreminder":13271,"Ġbelt":13272,"Ġpornography":13273,"Ġ1939":13274,"ASS":13275,"ĠAgent":13276,"abbit":13277,"Ġhammer":13278,"Ġdeny":13279,"ĠErrol":13280,"ĠPalance":13281,"Ġfunding":13282,"burne":13283,"ĠPreminger":13284,"ranos":13285,"Ġcommitment":13286,"Ġenhanced":13287,"ĠFROM":13288,"Ġstroke":13289,"Ġsympathize":13290,"Ġresurrect":13291,"Ġunsatisfying":13292,"ĠMormon":13293,"Ġgrateful":13294,"Ġnominations":13295,"busters":13296,"Ġpronoun":13297,"Ġmisfortune":13298,"!?":13299,"FUL":13300,"Our":13301,"TY":13302,"bach":13303,"hal":13304,"mers":13305,"sn":13306,"sub":13307,"Ġfierce":13308,"Ġbiol":13309,"Ġbulk":13310,"Ġcue":13311,"Ġcurt":13312,"Ġhij":13313,"Ġpals":13314,"Ġdrew":13315,"Ġwash":13316,"Ġyard":13317,"ĠWR":13318,"actually":13319,"Ġaltered":13320,"ĠLans":13321,"quer":13322,"ardless":13323,"Ġpros":13324,"Ġposing":13325,"Ġquant":13326,"intage":13327,"Ġdisregard":13328,"Ġseeming":13329,"cco":13330,"ĠVaugh":13331,"version":13332,"Ġincapable":13333,"Ġmusc":13334,"Ġreaders":13335,"Ġartwork":13336,"ĠReagan":13337,"Ġcraz":13338,"ĠZh":13339,"hetto":13340,"ielding":13341,"Ġ1981":13342,"!)<":13343,"OUN":13344,"?\"<":13345,"ĠParamount":13346,"know":13347,"Ġdolls":13348,"Ġcriticize":13349,"Ġ1945":13350,"ĠHolocaust":13351,"Ġescaping":13352,"Ġmediocr":13353,"Ġmouths":13354,"Ġyouthful":13355,"ĠMasters":13356,"Ġvehicles":13357,"burg":13358,"ĠClearly":13359,"Ġpursued":13360,"Ġdemonstrate":13361,"ĠPortman":13362,"Ġdisguised":13363,"Ġconvenient":13364,"ĠAtlantis":13365,"Ġselected":13366,"ĠfiancÃ©e":13367,"ĠKahn":13368,"Ġpsyched":13369,"ĠGilbert":13370,"Ġpublished":13371,"ĠGandhi":13372,"Ġparanoid":13373,"Ġvigil":13374,"ĠValentine":13375,"ĠDallas":13376,"ĠBennett":13377,"Ġbrooding":13378,"Ġabstract":13379,"sympathetic":13380,"!\",":13381,")?":13382,"Dra":13383,"Final":13384,"Gl":13385,"Much":13386,"doc":13387,"ridden":13388,"uv":13389,"witted":13390,"atile":13391,"Ġbike":13392,"esar":13393,"esse":13394,"Ġpimp":13395,"asi":13396,"Ġloop":13397,"vere":13398,"icia":13399,"uten":13400,"stood":13401,"Ġitems":13402,"ĠTCM":13403,"ĠACT":13404,"Ġhavoc":13405,"ĠBrilliant":13406,"ĠMing":13407,"ĠMouse":13408,"ĠMalt":13409,"ĠCob":13410,"empl":13411,"Ġfruit":13412,"Ġsorely":13413,"ags":13414,"ĠPierce":13415,"ĠLim":13416,"ĠLives":13417,"ĠFree":13418,"uded":13419,"Ġmanif":13420,"ĠKansas":13421,"arely":13422,"Ġoverbearing":13423,"Ġadore":13424,"Ġusers":13425,"Ġblunt":13426,"Ġhorrified":13427,"Ġinsuff":13428,"oots":13429,"Ġhandic":13430,"Ġinterior":13431,"Ġcommander":13432,"Ġremembers":13433,"Ġswitched":13434,"oulies":13435,"Ġquestioning":13436,"Ġaccepting":13437,"ĠTrust":13438,"Those":13439,"Ġliteral":13440,"Ġcartoonish":13441,"ĠTrail":13442,"ĠBravo":13443,"Ġdelightfully":13444,"Ġfatale":13445,"ĠMelville":13446,"Ġpreparing":13447,"ĠBelieve":13448,"ĠGarland":13449,"ICK":13450,"Ġpossession":13451,"Ġgrowth":13452,"ĠMcCoy":13453,"Ġsells":13454,"Ġpathos":13455,"Ġtourist":13456,"Ġgear":13457,"Ġtranslate":13458,"ukh":13459,"Ġcracking":13460,"ĠZombies":13461,"Ġneatly":13462,"ĠCompany":13463,"Ġuniversity":13464,"ĠModesty":13465,"Ġchoosing":13466,"ĠBrenda":13467,"Ġinstitution":13468,"Ġstabbed":13469,"ĠMountain":13470,"Ġunimaginative":13471,"indulgent":13472,"Ġominous":13473,"Ġcomprehend":13474,"ĠSwayze":13475,"stinov":13476,"ĠVisconti":13477,"Men":13478,"PP":13479,"Ret":13480,"lucky":13481,"Ġwider":13482,"Ġcries":13483,"Ġpic":13484,"Ġtoken":13485,"vet":13486,"otional":13487,"utive":13488,"owed":13489,"imum":13490,"Ġseedy":13491,"essed":13492,"active":13493,"ĠLogan":13494,"Ġorg":13495,"ĠNon":13496,"Ġenchant":13497,"pling":13498,"Ġperception":13499,"ouring":13500,"Ġpole":13501,"assic":13502,"ishop":13503,"rug":13504,"Ġrainy":13505,"Ġlonging":13506,"Ġapply":13507,"Ġartsy":13508,"Ġdelicious":13509,"ĠClive":13510,"Ġhousewife":13511,"Ġregister":13512,"Ġpromoted":13513,"ĠDanish":13514,"Ġdiscern":13515,"Ġdestined":13516,"Ġundead":13517,"Ġapprox":13518,"ermit":13519,"onica":13520,"Ġdelighted":13521,"Ġexploits":13522,"ĠLouise":13523,"ĠSTILL":13524,"Ġobsessive":13525,"ITE":13526,"Ġpraised":13527,"ĠLaurence":13528,"ĠWHO":13529,"Ġsafely":13530,"Ġscariest":13531,"ĠEnterprise":13532,"Ġcontributed":13533,"Ġdivorced":13534,"ĠHAVE":13535,"Ġdeliberate":13536,"ĠRicci":13537,"Ġdepending":13538,"ĠPotter":13539,"idelity":13540,"Ġexploding":13541,"Ġsuspicion":13542,"ĠElliott":13543,"ALLY":13544,"Cr":13545,"Mark":13546,"NOT":13547,"Out":13548,"din":13549,"fman":13550,"flix":13551,"lake":13552,"math":13553,"mund":13554,"Ġtire":13555,"Ġfires":13556,"Ġfreaking":13557,"Ġfifties":13558,"Ġbul":13559,"Ġbully":13560,"Ġbald":13561,"Ġbounty":13562,"asper":13563,"leased":13564,"ental":13565,"Ġwastes":13566,"ami":13567,"ammed":13568,"ĠBle":13569,"ĠMob":13570,"ĠMoe":13571,"ĠCBS":13572,"ĠHir":13573,"ĠHapp":13574,"ĠWait":13575,"ĠDixon":13576,"Ġjock":13577,"Ġwholes":13578,"ĠPra":13579,"ĠPalt":13580,"ĠLad":13581,"Ġoutdated":13582,"ĠGR":13583,"ĠGloria":13584,"ĠNIGHT":13585,"ĠEbert":13586,"Ġlock":13587,"ĠKell":13588,"sored":13589,"assin":13590,"Ġrose":13591,"Ġentries":13592,"Ġbiting":13593,"Ġinvention":13594,"Ġappeals":13595,"Ġbuzz":13596,"ĠSho":13597,"ĠRobot":13598,"ĠReid":13599,"Ġindifferent":13600,"Ġzone":13601,"iami":13602,"ĠAmir":13603,"Ġboxer":13604,"Ġmeantime":13605,"erminator":13606,"without":13607,"OOK":13608,"royd":13609,"Ġbrainless":13610,"Ġgrounds":13611,"ĠBasinger":13612,"Ġdegener":13613,"Ġbalanced":13614,"ĠRoyal":13615,"Ġboost":13616,"Ġensure":13617,"ĠJanet":13618,"Ġcolours":13619,"ĠCountry":13620,"ĠGiov":13621,"Ġenhance":13622,"Ġeternal":13623,"Ġreliable":13624,"Ġinexplicable":13625,"ĠIngrid":13626,"ĠSisters":13627,"Ġhunters":13628,"Ġacknowled":13629,"Ġrelentless":13630,"Ġmonologue":13631,"Ġcharacteristics":13632,"Ġrabbit":13633,"Ġpursue":13634,"ĠEisenstein":13635,"Ġneurotic":13636,".).":13637,"Based":13638,"Eng":13639,"EST":13640,"May":13641,"Niro":13642,"URE":13643,"oi":13644,"prom":13645,"rary":13646,"sorry":13647,"Ã¼":13648,"Ġakin":13649,"Ġsession":13650,"Ġware":13651,"itors":13652,"Ġbim":13653,"Ġbabe":13654,"Ġcents":13655,"eson":13656,"oust":13657,"Ġpoo":13658,"asco":13659,"Ġ/>**":13660,"Ġbeg":13661,"ĠTiger":13662,"eted":13663,"ĠAkshay":13664,"ĠMack":13665,"ĠMuppets":13666,"ĠCorn":13667,"ĠHim":13668,"ĠWrest":13669,"Ġsugar":13670,"Ġscored":13671,"Ġplate":13672,"ĠGadget":13673,"Ġcharms":13674,"ige":13675,"abel":13676,"ĠKnox":13677,"Ġoverblown":13678,"forming":13679,"Ġrealities":13680,"Ġrealistically":13681,"Ġdont":13682,"ĠChamber":13683,"Ġminister":13684,"ĠUstinov":13685,"Ġobtain":13686,"issance":13687,"autiful":13688,"Ġapplied":13689,"Ġbug":13690,"Ġbuys":13691,"Ġextensive":13692,"spot":13693,"Ġrelevance":13694,"Ġdistraction":13695,"ountered":13696,"Ġstudies":13697,"ĠNoah":13698,"Ġcentre":13699,"Ġsnuff":13700,"Ġpatron":13701,"Ġswearing":13702,"Ġfills":13703,"Ġexistential":13704,"Ġsociet":13705,"Ġ1994":13706,"Ġresear":13707,"borough":13708,"ĠGoodman":13709,"black":13710,"Ġinterviewed":13711,"Ġreplies":13712,"Ġcomparisons":13713,"ĠStrong":13714,"Ġkidnap":13715,"ACT":13716,"Ġhooker":13717,"Ġexplosive":13718,"Ġmutant":13719,"Really":13720,"ĠLois":13721,"Ġadvertised":13722,"ĠYOUR":13723,"ĠPacific":13724,"ĠKurosawa":13725,"Ġsinking":13726,"Ġparallels":13727,"ĠWesley":13728,"Ġobservation":13729,"Ġpsyche":13730,"ĠJuan":13731,"Ġsabot":13732,"Basically":13733,"ĠAffleck":13734,"Ġaesthetic":13735,"ĠScrooge":13736,"ĠAbraham":13737,"Ġvignettes":13738,"Ġscenarios":13739,"stanbul":13740,"Ġmediocrity":13741,"ĠPaltrow":13742,"Jeff":13743,"Mel":13744,"WH":13745,"iate":13746,"pa":13747,"ufact":13748,"ventional":13749,"wick":13750,"wolves":13751,"Ġsought":13752,"Ġbitten":13753,"esis":13754,"onents":13755,"omination":13756,"ĠIQ":13757,"ĠTale":13758,"Ġreign":13759,"advert":13760,"cending":13761,"Ġanc":13762,"ĠSame":13763,"Ġhaunt":13764,"riz":13765,"urrent":13766,"ĠMoh":13767,"ĠMummy":13768,"ussy":13769,"Ġdeem":13770,"ĠFried":13771,"ĠFitz":13772,"Ġposes":13773,"ĠEarly":13774,"ĠOk":13775,"ĠOlymp":13776,"Ġpercent":13777,"ava":13778,"ĠStay":13779,"Ġundercover":13780,"ĠUt":13781,"athom":13782,"Ġdecline":13783,"Ġinsurance":13784,"Ġinsomn":13785,"Ġcinemas":13786,"ĠClaus":13787,"comes":13788,"Ġmasters":13789,"Ġmorons":13790,"ĠPaulie":13791,"Ġsickening":13792,"Ġencountered":13793,"Ġsatisfaction":13794,"noir":13795,"Ġsuspected":13796,"ĠGlen":13797,"Ġunsure":13798,"ITT":13799,"Ġdivided":13800,"Ġwisely":13801,"Ġdebt":13802,"ĠEvan":13803,"Ġabandon":13804,"ĠHawk":13805,"ĠCollins":13806,"Ġconveyed":13807,"ĠLooking":13808,"Ġstalking":13809,"ĠAshley":13810,"ĠPLEASE":13811,"ĠLionel":13812,"ĠCharacter":13813,"Ġeternity":13814,"ĠRuby":13815,"Ġimpecc":13816,"Ġowes":13817,"Ġdetectives":13818,"ARNING":13819,"Ġlicense":13820,"ĠCorey":13821,"Ġshifts":13822,"ĠClarke":13823,"Ġmedicine":13824,"Four":13825,"IVE":13826,"NY":13827,"Tim":13828,"dance":13829,"gence":13830,"ua":13831,"Ġta":13832,"render":13833,"Ġcaps":13834,"bral":13835,"Ġgaps":13836,"Ġnun":13837,"Ġitem":13838,"ilmer":13839,"Ġnemes":13840,"ĠWee":13841,"Ġexempl":13842,"Ġvoodoo":13843,"ĠPsycho":13844,"ĠGor":13845,"ĠGersh":13846,"Ġunsc":13847,"ureau":13848,"avan":13849,"Ġspaghetti":13850,"Ġplotting":13851,"ĠHeck":13852,"azard":13853,"Ġlongest":13854,"Ġintertw":13855,"Ġheadache":13856,"ĠSpoilers":13857,"Ġdrab":13858,"Ġmedieval":13859,"ĠDana":13860,"incarn":13861,"Ġlandmark":13862,"Ġavoiding":13863,"Ġ1959":13864,"Ġcollective":13865,"ĠTravis":13866,"Ġstatements":13867,"Ġimprobable":13868,"ĠActors":13869,"ĠRocky":13870,"Ġnoticeable":13871,"Ġaiming":13872,"Ġsources":13873,"Ġinsights":13874,"Ġfields":13875,"Ġdetermination":13876,"Ġexperiencing":13877,"Ġeducated":13878,"ĠDarwin":13879,"Ġassociate":13880,"ĠMalone":13881,"Ġbreast":13882,"Ġcycle":13883,"ĠMUCH":13884,"Ġaccessible":13885,"Ġstylized":13886,"Ġembrace":13887,"ĠHotel":13888,"Ġwheelchair":13889,"Ġaxe":13890,"Ġgestures":13891,"ĠPython":13892,"Ġundeniably":13893,"Ġdazzling":13894,"ĠHUGE":13895,"Over":13896,"Sil":13897,"Tra":13898,"Up":13899,"fiction":13900,"rust":13901,"Ġ00":13902,"Ġsanity":13903,"Ġwagon":13904,"Ġok":13905,"Ġmim":13906,"Ġthieves":13907,"Ġgoo":13908,"Ġmold":13909,"ĠTogether":13910,"etc":13911,"Ġseas":13912,"ĠMalk":13913,"ĠMinn":13914,"Ġshrink":13915,"ĠWol":13916,"ĠWyn":13917,"ĠWILL":13918,"emen":13919,"Ġscandal":13920,"Ġkarate":13921,"elope":13922,"oodle":13923,"Ġric":13924,"Ġintoler":13925,"quest":13926,"quality":13927,"redited":13928,"ĠGund":13929,"Ġanytime":13930,"abre":13931,"inks":13932,"Ġarche":13933,"avier":13934,"Ġflavor":13935,"Ġinclusion":13936,"ĠAlison":13937,"Ġtraffic":13938,"Ġelite":13939,"Ġconfuse":13940,"Ġschizophren":13941,"ĠStephan":13942,"Ġgrabbed":13943,"Ġpaints":13944,"Ġ95":13945,"ĠLeft":13946,"unker":13947,"Ġirres":13948,"clim":13949,"OUSE":13950,"Ġsensation":13951,"ĠJules":13952,"Ġdamaged":13953,"Ġmidst":13954,"kinson":13955,"Ġphotographs":13956,"Ġpenal":13957,"ĠMencia":13958,"2001":13959,"Ġbanter":13960,"Ġprinciple":13961,"Ġfraud":13962,"Ġorganized":13963,"Ġdistracted":13964,"Steve":13965,"Ġvideot":13966,"Ġarguments":13967,"ĠCannon":13968,"Charles":13969,"Ġinherit":13970,"ĠSupporting":13971,"Ġharrowing":13972,"!).<":13973,"Cont":13974,"During":13975,"FT":13976,"TT":13977,"coll":13978,"family":13979,"mical":13980,"Ġtheories":13981,"rene":13982,"Ġoo":13983,"Ġost":13984,"vez":13985,"ĠIstanbul":13986,"Ġbegging":13987,"ĠTER":13988,"enton":13989,"ĠBarn":13990,"ĠBrig":13991,"ĠHon":13992,"una":13993,"Ġabound":13994,"ĠPak":13995,"Ġlikewise":13996,"Ġorange":13997,"Ġconco":13998,"Ġprob":13999,"izza":14000,"ĠVoy":14001,"Ġattach":14002,"thello":14003,"Ġresume":14004,"Ġnewer":14005,"Ġhardship":14006,"Ġclassy":14007,"Ġwarming":14008,"Ġdramatically":14009,"scene":14010,"Ġreviewed":14011,"Ġrepressed":14012,"Ġsentences":14013,"Ġ1989":14014,"ĠColor":14015,"Ġdamned":14016,"Ġcommunication":14017,"impy":14018,"ĠMadsen":14019,"Ġinsults":14020,"Ġdefine":14021,"Ġdemonst":14022,"Ġqualify":14023,"ĠPolish":14024,"Ġgrip":14025,"Ġpossesses":14026,"Ġemployee":14027,"ĠDoris":14028,"Everyone":14029,"Ġswords":14030,"Ġvolume":14031,"Ġestablishing":14032,"Ġcomposition":14033,"ĠKorea":14034,"ĠEverett":14035,"Ġarguing":14036,"Ġfestiv":14037,"Ġdumped":14038,"Grade":14039,"ĠIsraeli":14040,"Ġabsorbing":14041,"Ġpirate":14042,"Highly":14043,"ĠLowe":14044,"ĠSchneider":14045,"Ġinspirational":14046,"App":14047,"Bet":14048,"Hara":14049,"Lost":14050,"Old":14051,"Sn":14052,"bod":14053,"despite":14054,"hop":14055,"nice":14056,"tit":14057,"iture":14058,"Ġhats":14059,"Ġinmates":14060,"Ġlol":14061,"alented":14062,"ĠToni":14063,"enth":14064,"ĠBan":14065,"ĠBee":14066,"ĠCarson":14067,"Ġshift":14068,"Ġchorus":14069,"ifty":14070,"ĠDJ":14071,"ĠDiet":14072,"Ġscant":14073,"elia":14074,"anti":14075,"fell":14076,"ĠGree":14077,"ĠGoes":14078,"ĠKau":14079,"ĠKung":14080,"Ġperverse":14081,"Ġpopping":14082,"berry":14083,"bey":14084,"being":14085,"Ġolds":14086,"ection":14087,"Ġreserved":14088,"Ġraising":14089,"ignific":14090,"Ġexplode":14091,"Ġtyr":14092,"Ġpolar":14093,"ĠDeNiro":14094,"Ġdeterior":14095,"Ġskilled":14096,"ĠStefan":14097,"Ġtitular":14098,"Ġmothers":14099,"Ġswing":14100,"Ġcritique":14101,"Ġsteer":14102,"Ġhusbands":14103,"Ġweaker":14104,"ĠKeep":14105,"Ġseasoned":14106,"Ġ1987":14107,"Ġ1998":14108,"ĠWhoever":14109,"Ġachieves":14110,"Ġembarrassingly":14111,"ĠRedford":14112,"ĠLetter":14113,"Ġdiner":14114,"Ġintensely":14115,"ĠCarla":14116,"Ġresembling":14117,"Ġveterans":14118,"Ġbiker":14119,"Ġsurvivor":14120,"Ġsailor":14121,"Ġnauseating":14122,"Ġglamorous":14123,"Ġcrippled":14124,"Ġmasturb":14125,"Ġgorilla":14126,"ĠSopranos":14127,"Ġdownt":14128,"Both":14129,"Fred":14130,"Halloween":14131,"PR":14132,"Set":14133,"Was":14134,"bill":14135,"cal":14136,"full":14137,"ÃŃ":14138,"inian":14139,"Ġsunk":14140,"itivity":14141,"athered":14142,"Ġbree":14143,"ouri":14144,"Ġpatch":14145,"Ġdwarf":14146,"asia":14147,"Ġinsect":14148,"ĠIvan":14149,"utt":14150,"Ġforbidden":14151,"ĠSW":14152,"ĠSue":14153,"Ġliqu":14154,"ĠWing":14155,"ĠDame":14156,"ĠDiamond":14157,"unte":14158,"Ġjunior":14159,"Ġsober":14160,"andro":14161,"ĠRaw":14162,"ĠLest":14163,"Ġintact":14164,"Ġagon":14165,"Ġagony":14166,"Ġaftermath":14167,"Ġslaves":14168,"Ġslapped":14169,"ailed":14170,"Ġbelievability":14171,"Ġrightly":14172,"Ġhandy":14173,"Ġglaring":14174,"Ġsynt":14175,"Ġstuffed":14176,"Ġcheaply":14177,"Ġunfamiliar":14178,"Ġtheatres":14179,"Ġadaption":14180,"Ġcolleague":14181,"Ġcondu":14182,"Ġdefies":14183,"Ġmillionaire":14184,"Ġverbal":14185,"Ġsentimentality":14186,"Ġscrewball":14187,"Ġpeaceful":14188,"Ġtickets":14189,"Ġrewarded":14190,"Ġhippies":14191,"ĠRandolph":14192,"Actually":14193,"Ġlavish":14194,"birds":14195,"Ġlegitimate":14196,"Ġseductive":14197,"ĠLundgren":14198,"ĠEntertainment":14199,"ĠShelley":14200,
[...]
